▁de 1
, 1
▁la 1
. 1
▁y 1
▁en 1
▁que 1
▁el 1
s 1
▁a 1
▁los 1
▁las 1
▁del 1
▁se 1
▁para 1
▁con 1
▁un 1
▁por 1
n 1
▁una 1
▁no 1
▁su 1
▁al 1
▁es 1
▁( 1
r 1
▁sobre 1
) 1
▁El 1
▁como 1
▁o 1
▁ 1
▁lo 1
▁La 1
▁más 1
▁En 1
es 1
▁ha 1
: 1
do 1
a 1
; 1
▁sus 1
▁A 1
o 1
▁Naciones 1
▁Unidas 1
da 1
▁entre 1
▁Estados 1
▁este 1
/ 1
se 1
mente 1
▁Comisión 1
▁también 1
▁e 1
▁países 1
▁desarrollo 1
▁General 1
mos 1
▁Consejo 1
▁si 1
▁esta 1
▁han 1
▁Y 1
▁contra 1
▁son 1
ndo 1
▁derechos 1
▁todos 1
e 1
- 1
▁in 1
ción 1
▁informe 1
▁Comité 1
▁" 1
▁está 1
▁Se 1
▁No 1
á 1
▁ser 1
l 1
▁re 1
▁parte 1
▁internacional 1
▁Los 1
? 1
la 1
▁período 1
▁personas 1
▁me 1
▁información 1
dos 1
▁¿ 1
▁todo 1
▁medidas 1
ba 1
▁años 1
▁resolución 1
das 1
t 1
▁así 1
▁mi 1
▁pero 1
▁Estado 1
▁derecho 1
A 1
▁humanos 1
▁puede 1
▁programa 1
▁Por 1
ó 1
▁sin 1
▁le 1
▁muy 1
▁otros 1
▁hacer 1
▁sesiones 1
C 1
▁actividades 1
▁artículo 1
ta 1
ra 1
lo 1
en 1
▁Asamblea 1
▁cuando 1
▁ese 1
▁niños 1
▁1 1
y 1
▁proyecto 1
▁trabajo 1
▁Presidente 1
▁Gobierno 1
▁respecto 1
▁aplicación 1
▁miembros 1
▁fin 1
▁sistema 1
▁“ 1
▁dos 1
d 1
▁forma 1
▁- 1
le 1
▁vez 1
▁todas 1
▁tiene 1
▁Secretario 1
▁seguridad 1
▁país 1
), 1
ía 1
▁otras 1
to 1
). 1
▁Las 1
ca 1
te 1
▁mundo 1
ron 1
▁mujeres 1
ar 1
▁apoyo 1
▁De 1
i 1
an 1
on 1
S 1
ciones 1
▁Grupo 1
▁están 1
▁recursos 1
▁hay 1
▁hecho 1
▁cada 1
▁servicios 1
▁Es 1
c 1
p 1
de 1
▁lugar 1
u 1
▁debe 1
▁Convención 1
▁esa 1
▁situación 1
▁cuenta 1
▁fue 1
▁ya 1
▁2 1
▁particular 1
ma 1
▁durante 1
▁tiempo 1
▁había 1
▁desde 1
é 1
▁programas 1
▁internacionales 1
▁organizaciones 1
▁importante 1
▁proceso 1
▁tanto 1
▁cooperación 1
▁era 1
▁esto 1
▁pueden 1
no 1
▁c 1
co 1
▁Si 1
▁Internacional 1
▁República 1
di 1
▁política 1
▁porque 1
▁S 1
▁Seguridad 1
▁manera 1
▁3 1
▁asistencia 1
er 1
▁paz 1
▁nacional 1
▁párrafo 1
▁relación 1
▁Unión 1
nte 1
re 1
" 1
▁b 1
▁Pero 1
▁gran 1
▁cuestiones 1
▁Con 1
▁año 1
▁nos 1
sa 1
▁bien 1
▁sido 1
▁general 1
▁nivel 1
▁C 1
▁I 1
▁cuestión 1
les 1
▁pro 1
▁mayor 1
▁Al 1
▁uno 1
▁vida 1
ti 1
▁protección 1
▁hasta 1
▁Sr 1
▁personal 1
▁caso 1
▁sólo 1
▁E 1
▁tienen 1
án 1
▁estos 1
▁Derechos 1
▁mismo 1
▁nacionales 1
P 1
me 1
rá 1
▁presente 1
▁P 1
▁Europea 1
g 1
▁19 1
rse 1
▁menos 1
m 1
▁hace 1
ría 1
▁esos 1
ce 1
▁Conferencia 1
ci 1
cu 1
▁eso 1
L 1
▁O 1
▁millones 1
▁marco 1
ro 1
▁acuerdo 1
▁ver 1
▁dólares 1
▁conformidad 1
í 1
▁número 1
▁posible 1
▁salud 1
na 1
▁social 1
ban 1
▁haya 1
ación 1
▁ejemplo 1
▁armas 1
▁qué 1
▁sea 1
▁mediante 1
▁10 1
▁di 1
▁políticas 1
b 1
▁4 1
▁tema 1
▁datos 1
▁atención 1
▁antes 1
▁capacidad 1
▁ni 1
▁ante 1
” 1
▁les 1
▁Así 1
que 1
▁decisión 1
E 1
▁partes 1
▁cosas 1
▁labor 1
▁esas 1
▁embargo 1
ga 1
▁5 1
▁algo 1
▁materia 1
ten 1
▁estas 1
li 1
▁tener 1
▁ahora 1
▁algunos 1
▁tres 1
▁Especial 1
▁ex 1
▁deben 1
▁otra 1
idad 1
▁esfuerzos 1
so 1
▁mejor 1
▁examen 1
▁trata 1
▁otro 1
▁decir 1
z 1
▁nuestra 1
▁También 1
▁mujer 1
▁nuevo 1
▁comunidad 1
▁medio 1
▁pre 1
▁acceso 1
▁condiciones 1
go 1
▁donde 1
al 1
▁base 1
▁diciembre 1
▁tipo 1
▁nuestro 1
je 1
vi 1
B 1
▁Además 1
▁mucho 1
▁Oficina 1
▁casos 1
▁Re 1
▁objetivos 1
▁problemas 1
▁Programa 1
▁después 1
▁Sin 1
▁6 1
▁educación 1
▁Desarrollo 1
nos 1
mi 1
▁toda 1
▁15 1
▁Para 1
▁Parte 1
▁te 1
in 1
ja 1
▁instituciones 1
mo 1
▁día 1
▁co 1
ri 1
▁Unidos 1
▁informes 1
▁Humanos 1
▁momento 1
▁importancia 1
▁B 1
pa 1
▁sino 1
▁primera 1
▁12 1
D 1
▁Europa 1
▁responsabilidad 1
▁cualquier 1
▁tan 1
▁Me 1
▁especial 1
▁ellos 1
▁participación 1
▁cual 1
▁grupos 1
▁7 1
▁África 1
▁normas 1
▁Esta 1
el 1
▁población 1
▁necesidad 1
ve 1
▁reunión 1
▁va 1
T 1
tra 1
". 1
▁problema 1
▁disposiciones 1
▁sector 1
▁ley 1
tu 1
▁— 1
▁8 1
ne 1
▁grupo 1
▁violencia 1
▁Mundial 1
▁documento 1
▁primer 1
▁Organización 1
▁persona 1
▁sesión 1
▁sociedad 1
▁uso 1
▁muchos 1
▁ca 1
▁solo 1
▁d 1
▁Parlamento 1
▁Ley 1
▁resultados 1
h 1
▁ayuda 1
▁recomendaciones 1
un 1
os 1
▁dar 1
▁mejorar 1
▁Este 1
ado 1
▁gente 1
▁lograr 1
▁he 1
O 1
▁aquí 1
▁In 1
▁tal 1
k 1
▁nota 1
▁20 1
▁mundial 1
▁necesario 1
▁F 1
▁necesidades 1
▁9 1
▁cómo 1
▁debería 1
▁horas 1
▁gestión 1
▁nombre 1
▁Lo 1
▁fecha 1
bi 1
▁Partes 1
▁objetivo 1
M 1
si 1
tar 1
G 1
▁región 1
▁Miembros 1
▁plan 1
▁14 1
▁proyectos 1
▁18 1
▁presupuesto 1
▁Como 1
▁inter 1
▁11 1
los 1
▁Trabajo 1
va 1
▁lucha 1
▁ello 1
f 1
▁control 1
las 1
▁promover 1
00 1
▁poder 1
▁Tribunal 1
2 1
as 1
▁hemos 1
tas 1
▁Mi 1
▁podría 1
▁tenemos 1
▁especialmente 1
▁G 1
▁incluso 1
▁civil 1
Risas 1
qui 1
▁nuestros 1
▁garantizar 1
▁Ma 1
▁discriminación 1
▁regionales 1
▁cambio 1
F 1
▁medida 1
res 1
▁dentro 1
▁crear 1
▁13 1
▁acerca 1
v 1
tos 1
▁debate 1
▁sentido 1
ter 1
▁hoy 1
▁estaba 1
▁junio 1
▁pobreza 1
▁mayoría 1
ir 1
.1 1
▁hacia 1
▁virtud 1
▁total 1
▁plazo 1
▁algunas 1
▁propuesta 1
x 1
▁estado 1
▁aún 1
▁papel 1
▁sociales 1
▁medios 1
▁favor 1
▁respuesta 1
▁haber 1
▁dice 1
▁modo 1
▁[ 1
▁decisiones 1
▁p 1
▁sí 1
... 1
▁per 1
bo 1
▁30 1
▁principios 1
▁organización 1
U 1
▁autoridades 1
▁terrorismo 1
▁práctica 1
▁futuro 1
▁adoptar 1
▁Su 1
▁podemos 1
I 1
▁evaluación 1
▁empleo 1
is 1
▁anexo 1
▁objeto 1
▁habían 1
▁nuevas 1
▁acción 1
▁organismos 1
▁calidad 1
▁pertinentes 1
tó 1
] 1
▁delegación 1
▁mo 1
▁investigación 1
▁punto 1
▁cuanto 1
pi 1
▁cabo 1
▁examinar 1
▁productos 1
ria 1
gra 1
▁mandato 1
▁nosotros 1
dor 1
ble 1
▁16 1
▁Esto 1
▁establecer 1
▁Una 1
▁poco 1
▁siempre 1
▁zonas 1
▁Un 1
▁empresas 1
▁bajo 1
ven 1
▁según 1
▁órganos 1
▁creación 1
▁nueva 1
ida 1
▁legislación 1
▁tu 1
▁orden 1
▁ma 1
▁julio 1
▁relativas 1
▁público 1
▁realidad 1
▁será 1
▁Social 1
ada 1
▁Nacional 1
▁seguir 1
▁M 1
▁aumento 1
▁libertad 1
▁tecnología 1
▁estamos 1
▁vi 1
▁Señor 1
▁Ha 1
▁importantes 1
▁septiembre 1
gi 1
▁principales 1
▁yo 1
▁ejecución 1
▁fondos 1
▁sostenible 1
ú 1
▁segundo 1
▁falta 1
▁17 1
▁días 1
▁misma 1
▁además 1
▁realmente 1
▁diferentes 1
▁mercado 1
▁principio 1
▁pública 1
▁siguientes 1
▁Declaración 1
ntes 1
▁agua 1
▁gobiernos 1
▁representantes 1
▁financiación 1
▁Protocolo 1
▁económica 1
fi 1
▁declaración 1
▁contexto 1
▁función 1
▁través 1
▁u 1
▁igualdad 1
ur 1
▁frente 1
pe 1
▁arreglo 1
▁pa 1
▁efectos 1
▁D 1
▁noviembre 1
▁unos 1
▁actual 1
▁económico 1
▁él 1
▁sigue 1
▁largo 1
▁final 1
▁comercio 1
encia 1
▁gubernamentales 1
▁prácticas 1
▁aplicar 1
za 1
▁nuevos 1
iendo 1
▁octubre 1
dores 1
▁Junta 1
N 1
ido 1
▁gastos 1
▁estar 1
ch 1
▁siendo 1
▁muchas 1
▁Nueva 1
▁Fondo 1
▁to 1
▁tra 1
▁establecimiento 1
▁niño 1
ncia 1
▁funcionarios 1
▁ciudadanos 1
▁formas 1
▁siguiente 1
▁víctimas 1
or 1
▁justicia 1
▁valor 1
▁conflictos 1
ían 1
▁último 1
▁fuera 1
▁po 1
rán 1
▁posibilidad 1
▁tras 1
▁causa 1
▁operaciones 1
tro 1
▁Asuntos 1
▁figura 1
▁espacio 1
▁grandes 1
▁equipo 1
▁pregunta 1
▁coordinación 1
▁Secretaría 1
▁cumplimiento 1
▁sistemas 1
▁interés 1
▁ayudar 1
▁Ministerio 1
miento 1
▁reuniones 1
ru 1
▁pasado 1
fa 1
tiva 1
▁energía 1
▁regional 1
' 1
▁nucleares 1
▁representa 1
▁ámbito 1
▁promoción 1
▁opinión 1
ge 1
jo 1
▁pueblo 1
▁fundamental 1
▁poner 1
▁Departamento 1
ización 1
fe 1
▁edad 1
▁realizar 1
▁representante 1
▁autor 1
▁comunicación 1
▁técnica 1
▁crisis 1
▁ra 1
▁historia 1
▁reforma 1
▁Europeo 1
▁procedimientos 1
▁mantenimiento 1
▁sean 1
▁creo 1
5 1
▁resultado 1
R 1
▁pueda 1
fer 1
▁obligaciones 1
vo 1
▁marzo 1
▁resoluciones 1
▁compromiso 1
6 1
▁reducir 1
▁carácter 1
▁texto 1
▁T 1
▁tomar 1
▁2005 1
▁idea 1
▁Informe 1
▁veces 1
emos 1
▁fueron 1
▁aumentar 1
▁correspondiente 1
▁puedan 1
▁dicho 1
▁propuestas 1
▁mecanismos 1
▁Israel 1
▁Ca 1
▁común 1
ismo 1
▁Ahora 1
▁cuatro 1
▁gracias 1
▁policía 1
▁lista 1
▁actos 1
▁locales 1
rio 1
▁abril 1
▁considera 1
▁ambiente 1
▁meses 1
▁serie 1
▁familia 1
▁instrumentos 1
▁da 1
▁género 1
▁mayo 1
lla 1
▁Cuando 1
▁2000 1
▁solución 1
▁conflicto 1
▁toma 1
▁jóvenes 1
▁L 1
ando 1
▁amplia 1
▁of 1
man 1
▁guerra 1
H 1
po 1
3 1
▁prevención 1
▁mientras 1
▁varios 1
▁aspectos 1
▁diálogo 1
▁Carta 1
▁Misión 1
▁preocupación 1
▁aunque 1
▁ven 1
▁zona 1
1 1
▁estrategia 1
▁cinco 1
▁obstante 1
▁expertos 1
▁vista 1
il 1
por 1
con 1
▁Pa 1
▁i 1
▁asegurar 1
▁iniciativas 1
▁China 1
▁efecto 1
ya 1
▁conjunto 1
▁Pacto 1
▁ve 1
sión 1
▁puesto 1
ados 1
▁f 1
▁capacitación 1
▁demás 1
▁fundamentales 1
be 1
▁the 1
▁entonces 1
); 1
▁experiencia 1
▁sería 1
▁servicio 1
▁dijo 1
▁facilitar 1
▁24 1
▁documentos 1
▁alto 1
▁América 1
us 1
▁2004 1
cha 1
▁transporte 1
▁procedimiento 1
sta 1
▁cumplir 1
▁UE 1
▁pueblos 1
▁encontrar 1
▁enero 1
▁2002 1
▁Tratado 1
▁Convenio 1
▁25 1
▁nuestras 1
▁2001 1
▁resulta 1
▁hombres 1
▁li 1
ran 1
4 1
▁local 1
▁Representante 1
era 1
▁debido 1
▁relativa 1
▁crecimiento 1
▁21 1
▁relaciones 1
▁especiales 1
▁territorio 1
! 1
ni 1
▁últimos 1
▁puestos 1
▁producción 1
nd 1
▁libre 1
▁estudio 1
▁formación 1
▁22 1
▁2003 1
V 1
▁todavía 1
▁oportunidad 1
”. 1
▁centro 1
▁imp 1
▁Acción 1
per 1
▁tenía 1
▁funciones 1
▁acuerdos 1
▁celebrada 1
▁colaboración 1
▁Iraq 1
▁luego 1
▁establecido 1
▁economía 1
▁señor 1
ista 1
▁consecuencias 1
▁Le 1
▁consultas 1
▁VIH 1
ré 1
▁proteger 1
um 1
▁relacionadas 1
▁principal 1
▁Ba 1
▁leyes 1
▁sa 1
▁llevar 1
▁saber 1
▁llegar 1
▁Hay 1
▁eran 1
▁Co 1
▁mantener 1
▁casi 1
▁éxito 1
.2 1
▁dis 1
▁reducción 1
▁utilización 1
▁indica 1
▁quiero 1
▁podrá 1
▁ro 1
▁referencia 1
tal 1
▁refugiados 1
▁ninguna 1
▁eficaz 1
▁ciudad 1
▁ella 1
w 1
▁Di 1
▁2006 1
▁adopción 1
tado 1
▁prestar 1
▁R 1
▁financieros 1
▁enfoque 1
▁gobierno 1
▁presentar 1
▁ejercicio 1
gu 1
▁aprobación 1
▁bienes 1
▁presentación 1
▁suma 1
▁consecuencia 1
▁31 1
▁hotel 1
ha 1
▁Te 1
it 1
▁deberían 1
▁hizo 1
/1 1
▁plenamente 1
▁Penal 1
ente 1
▁políticos 1
▁comunidades 1
▁comp 1
▁23 1
▁indígenas 1
▁razón 1
▁régimen 1
▁ellas 1
▁riesgo 1
▁Artículo 1
▁Sra 1
▁espera 1
adas 1
▁difícil 1
ros 1
▁Pro 1
▁buena 1
", 1
▁varias 1
du 1
cri 1
▁fuerzas 1
▁menores 1
▁presentado 1
▁administración 1
▁determinar 1
▁nada 1
cia 1
▁obtener 1
▁cuales 1
▁and 1
▁generales 1
▁temas 1
▁participar 1
lu 1
ber 1
ing 1
▁cu 1
▁ingresos 1
▁2007 1
”, 1
▁alguna 1
cen 1
▁sub 1
cción 1
▁proporcionar 1
▁Código 1
st 1
men 1
ll 1
▁utilizar 1
▁inglés 1
tion 1
▁Mo 1
▁pe 1
▁igual 1
ct 1
▁parece 1
▁significa 1
▁Vi 1
▁dado 1
ita 1
▁esfera 1
): 1
den 1
▁ningún 1
tor 1
▁debemos 1
▁ne 1
▁delito 1
▁niveles 1
▁observa 1
▁incluidos 1
▁curso 1
▁concepto 1
com 1
▁mar 1
▁seguimiento 1
▁He 1
▁político 1
▁par 1
▁agosto 1
CN 1
Qué 1
▁observaciones 1
ck 1
▁existe 1
▁apoyar 1
▁mis 1
▁casa 1
cer 1
▁peligro 1
▁teniendo 1
▁competencia 1
▁análisis 1
▁Permanente 1
▁alcanzar 1
▁centros 1
▁so 1
ho 1
▁auto 1
amos 1
▁trabajadores 1
bra 1
▁segunda 1
▁U 1
▁ir 1
▁bo 1
▁II 1
▁negociaciones 1
▁real 1
▁sexual 1
ieron 1
▁nunca 1
▁fa 1
▁secretaría 1
ren 1
▁N 1
▁asuntos 1
istas 1
▁g 1
▁progresos 1
▁regiones 1
▁relacionados 1
7 1
▁provisional 1
Aplausos 1
▁hacerlo 1
ec 1
car 1
cio 1
▁cargo 1
cho 1
▁desea 1
rra 1
▁evitar 1
▁Económico 1
▁pi 1
pre 1
▁violaciones 1
ón 1
/2 1
8 1
▁dinero 1
▁K 1
▁pesar 1
▁insta 1
hi 1
▁Sa 1
ul 1
▁haciendo 1
▁artículos 1
▁febrero 1
▁respeto 1
▁sal 1
▁esferas 1
▁necesita 1
▁usted 1
ver 1
▁financiera 1
enta 1
▁iniciativa 1
▁escala 1
▁civiles 1
▁Relator 1
▁Reino 1
▁Rusia 1
▁disposición 1
▁independiente 1
▁Centro 1
▁penal 1
tes 1
▁fines 1
▁terreno 1
▁• 1
▁trabajar 1
▁dispuesto 1
▁Medio 1
▁podrían 1
▁red 1
▁judicial 1
véase 1
▁26 1
▁oportunidades 1
▁tales 1
▁ad 1
▁amenaza 1
▁Constitución 1
▁fuerza 1
▁relativo 1
▁ofrece 1
▁necesarias 1
gue 1
izar 1
▁desarme 1
ras 1
tivas 1
▁párr 1
▁cerca 1
tivo 1
▁Milenio 1
▁Corte 1
▁Democrática 1
▁consiguiente 1
tación 1
▁miembro 1
▁muerte 1
▁estructura 1
▁fondo 1
▁delitos 1
▁privado 1
▁28 1
▁Acuerdo 1
▁claro 1
▁pues 1
▁aprobado 1
▁hablar 1
▁27 1
▁EE 1
▁Desde 1
▁votación 1
▁anterior 1
▁seis 1
▁adoptadas 1
▁fortalecer 1
▁2008 1
▁Unido 1
che 1
▁lugares 1
▁Plan 1
▁mecanismo 1
▁for 1
▁misión 1
▁tratamiento 1
gre 1
▁abordar 1
Add 1
▁enseñanza 1
su 1
nes 1
▁incluida 1
▁Mar 1
▁Asia 1
▁amplio 1
SIDA 1
▁Po 1
▁estoy 1
▁Esa 1
▁palabras 1
▁resolver 1
▁sitio 1
imos 1
▁elecciones 1
▁incluye 1
▁Ro 1
▁reconocimiento 1
▁contribuciones 1
▁Durante 1
▁aprobó 1
ró 1
he 1
UU 1
ic 1
▁niñas 1
▁tratados 1
idas 1
rios 1
▁cuyo 1
▁señala 1
▁recomienda 1
▁planes 1
sti 1
▁propia 1
▁partir 1
▁actividad 1
▁Cumbre 1
cto 1
▁Da 1
th 1
▁ba 1
▁diversos 1
mina 1
▁elementos 1
▁intereses 1
▁Ministro 1
tre 1
▁junto 1
.5 1
▁York 1
▁tenido 1
siones 1
▁elaboración 1
▁sectores 1
▁demanda 1
ió 1
j 1
▁1999 1
▁contenido 1
▁presenta 1
▁diversas 1
▁único 1
▁declaraciones 1
▁eficacia 1
▁militares 1
▁quienes 1
▁vigor 1
entes 1
▁Aunque 1
▁miras 1
▁completa 1
ng 1
ue 1
▁instrumento 1
▁incluir 1
▁propio 1
▁reserva 1
▁tratar 1
ac 1
▁Tema 1
▁necesarios 1
▁empresa 1
▁origen 1
▁mí 1
▁preparación 1
nas 1
▁escrito 1
▁cuadro 1
▁delegaciones 1
▁recibir 1
▁Paz 1
▁constituye 1
▁estudios 1
▁estrategias 1
▁bienio 1
▁conocimientos 1
▁central 1
▁vol 1
sas 1
▁interna 1
▁nuclear 1
▁integración 1
▁hijos 1
▁Alto 1
0.000 1
▁militar 1
▁supervisión 1
▁Internet 1
▁podía 1
▁Ra 1
▁estaban 1
▁hacen 1
▁car 1
ana 1
▁obligación 1
▁situaciones 1
▁pasa 1
▁Asimismo 1
9 1
▁tortura 1
▁permite 1
▁familias 1
▁H 1
pu 1
▁satisfacción 1
▁supuesto 1
min 1
▁50 1
ales 1
▁entidades 1
▁na 1
▁afirma 1
▁infraestructura 1
▁escuelas 1
▁pequeñas 1
▁San 1
▁posición 1
mp 1
▁fi 1
▁funciona 1
▁Congo 1
▁misiones 1
zo 1
.4 1
▁cierto 1
10 1
▁material 1
▁superior 1
▁sección 1
▁económicos 1
▁humana 1
▁luz 1
▁apoya 1
gen 1
▁línea 1
▁Ho 1
▁pide 1
am 1
ña 1
▁apartado 1
▁India 1
▁cambios 1
mar 1
ces 1
▁democracia 1
▁ho 1
▁global 1
▁anual 1
▁adoptado 1
K 1
ina 1
▁usar 1
ero 1
nda 1
▁capital 1
io 1
cos 1
ed 1
▁participantes 1
▁juicio 1
fo 1
▁dirección 1
▁palabra 1
▁violación 1
▁contribuir 1
▁pena 1
▁figuran 1
▁intercambio 1
▁solicitud 1
▁mejores 1
▁incluidas 1
▁Sala 1
▁alta 1
▁comunicaciones 1
▁cantidad 1
▁última 1
▁financieras 1
▁suficiente 1
▁titulado 1
▁oficiales 1
▁cultura 1
▁actualmente 1
▁graves 1
▁trans 1
▁oficial 1
▁tenga 1
▁allí 1
▁firma 1
▁universal 1
ment 1
▁marcha 1
▁padres 1
▁29 1
▁industria 1
▁asociados 1
▁preocupa 1
▁alcance 1
▁invita 1
gar 1
▁respecta 1
▁V 1
ex 1
▁diferencia 1
▁tráfico 1
cion 1
▁siguen 1
▁2000, 1
▁pidió 1
▁públicos 1
▁mal 1
▁carta 1
▁Entonces 1
▁condición 1
▁relativos 1
ye 1
▁camino 1
▁compromisos 1
▁PNUD 1
▁recomendación 1
▁com 1
▁semana 1
▁alrededor 1
0 1
.3 1
rre 1
▁armados 1
▁detención 1
▁continuación 1
wa 1
▁Presidencia 1
▁tribunales 1
bilidad 1
bles 1
▁tengan 1
llo 1
▁tierra 1
sen 1
ka 1
▁finales 1
▁Federación 1
▁expresa 1
▁acciones 1
▁Entre 1
▁carga 1
▁eliminar 1
▁distintos 1
▁funcionamiento 1
▁circunstancias 1
▁elaborar 1
▁Justicia 1
▁ri 1
▁donantes 1
▁man 1
▁pensar 1
▁entorno 1
▁desarrollar 1
habla 1
▁tercer 1
▁contar 1
▁Li 1
▁procesos 1
▁Derecho 1
▁refiere 1
▁directrices 1
▁van 1
▁reglamento 1
▁Afganistán 1
▁Segú 1
▁modelo 1
▁hi 1
dad 1
▁Creo 1
art 1
▁jurídico 1
▁Bo 1
▁seguro 1
▁pobres 1
▁dejar 1
▁cosa 1
tivos 1
▁be 1
▁esté 1
▁existentes 1
▁ce 1
▁incluido 1
▁dificultades 1
▁comerciales 1
aciones 1
▁propiedad 1
▁DE 1
lle 1
50 1
ut 1
▁drogas 1
▁previsto 1
▁considerar 1
▁dispone 1
▁razones 1
▁res 1
▁reconoce 1
▁hu 1
▁Todos 1
▁adicionales 1
▁naturales 1
▁plena 1
▁fe 1
▁2005, 1
▁establece 1
rían 1
▁deseo 1
remos 1
▁Administración 1
tribu 1
▁tecnologías 1
▁única 1
▁perspectiva 1
▁paso 1
▁mu 1
▁ob 1
▁cambiar 1
▁interesados 1
qué 1
▁can 1
ad 1
▁estabilidad 1
▁construcción 1
▁humano 1
▁eliminación 1
▁W 1
▁financiero 1
ia 1
▁confianza 1
▁anti 1
▁humanitaria 1
▁materiales 1
▁J 1
tri 1
▁quisiera 1
▁efectiva 1
▁anteriores 1
dio 1
▁cuya 1
ton 1
▁pruebas 1
▁Canadá 1
can 1
▁– 1
▁hombre 1
▁oficinas 1
té 1
▁Japón 1
tura 1
▁Francia 1
▁pequeños 1
▁tasa 1
▁prevenir 1
▁económicas 1
▁decidió 1
▁tendrá 1
▁opiniones 1
▁contribución 1
▁éste 1
pen 1
▁criterios 1
▁determinación 1
tera 1
▁conseguir 1
▁UNICEF 1
▁hora 1
▁queda 1
▁producto 1
▁dicha 1
▁Banco 1
▁conocimiento 1
▁prevé 1
▁verdad 1
bu 1
▁tribunal 1
▁básicos 1
▁culturales 1
ol 1
▁conclusiones 1
cre 1
▁entender 1
▁Gracias 1
▁Yo 1
▁acoge 1
▁encuentra 1
▁Gran 1
▁2001, 1
AC 1
▁climático 1
▁quien 1
▁profesional 1
▁aplica 1
▁2003, 1
▁planificación 1
▁conferencias 1
▁40 1
▁necesaria 1
▁prioridades 1
▁web 1
▁tuvo 1
ig 1
▁dirigida 1
Y 1
▁60 1
▁trabajos 1
▁naturaleza 1
▁recibido 1
▁Eso 1
▁presentó 1
▁extra 1
ario 1
et 1
▁siglo 1
▁Comisionado 1
▁escuela 1
▁esencial 1
▁tengo 1
▁formular 1
▁física 1
▁presencia 1
gan 1
spe 1
▁UN 1
▁valores 1
▁beneficios 1
mento 1
rias 1
nu 1
▁Países 1
▁estima 1
▁Presidenta 1
▁proliferación 1
mas 1
▁señaló 1
▁directamente 1
▁transición 1
▁posibles 1
▁Mujer 1
tan 1
▁2004, 1
▁comercial 1
▁diseño 1
▁mercados 1
sto 1
tica 1
▁informar 1
cur 1
▁duda 1
▁Norte 1
▁reforzar 1
▁2006, 1
▁gra 1
▁explotación 1
▁Información 1
▁entrada 1
▁distribución 1
▁2002, 1
▁motivos 1
▁permitir 1
▁existen 1
▁Ex 1
▁Pe 1
▁jurídica 1
▁evaluar 1
▁agentes 1
▁transferencia 1
nta 1
15 1
▁algún 1
▁División 1
▁combatir 1
▁existencia 1
▁independencia 1
cas 1
▁lleva 1
izado 1
▁europea 1
▁fortalecimiento 1
der 1
▁cuerpo 1
rro 1
▁tipos 1
▁asunto 1
▁do 1
▁exp 1
▁Instituto 1
▁Director 1
▁fuerte 1
ándose 1
dica 1
▁preparar 1
▁puntos 1
▁realizado 1
▁serán 1
▁clave 1
▁fuentes 1
▁fomentar 1
nia 1
▁Recordando 1
at 1
▁internos 1
▁métodos 1
▁mismos 1
ctor 1
▁infantil 1
▁grado 1
▁instalaciones 1
▁bastante 1
▁gustaría 1
▁términos 1
▁oficina 1
▁Kosovo 1
▁autoridad 1
▁Na 1
▁Pide 1
▁preguntas 1
▁cultural 1
▁territorios 1
▁alguien 1
▁Ta 1
▁Foro 1
▁menudo 1
▁pasar 1
▁pesca 1
▁señalar 1
lí 1
sos 1
▁terroristas 1
▁visto 1
có 1
La 1
▁corre 1
ste 1
▁Véase 1
fu 1
W 1
▁Ginebra 1
▁habría 1
▁Ka 1
▁Sudán 1
▁órgano 1
▁Consultiva 1
▁Niño 1
▁fomento 1
▁completo 1
▁prioridad 1
iera 1
org 1
▁motivo 1
▁¡ 1
▁distintas 1
▁celebrar 1
▁cuentas 1
▁deberá 1
lar 1
▁refleja 1
▁Ar 1
xi 1
▁defensa 1
ke 1
▁propone 1
iza 1
▁1997 1
▁asimismo 1
par 1
▁extraordinario 1
▁muestra 1
▁claramente 1
▁basa 1
▁pu 1
▁abierta 1
▁próximo 1
▁vigilancia 1
▁llega 1
▁permanente 1
para 1
▁venta 1
ine 1
▁discapacidad 1
▁menor 1
pare 1
▁abarca 1
▁baja 1
nal 1
▁tratado 1
▁m 1
stru 1
ie 1
▁solicita 1
▁Bueno 1
▁consulta 1
▁México 1
▁voluntad 1
▁Alemania 1
▁palestino 1
▁saben 1
▁prestación 1
▁responsables 1
▁Ja 1
▁Com 1
▁deuda 1
▁demasiado 1
▁diferente 1
▁conforme 1
▁(19 1
▁categoría 1
sh 1
▁cor 1
rnos 1
pon 1
▁Ju 1
nt 1
▁tareas 1
Cómo 1
▁buen 1
_ 1
▁concretas 1
▁depende 1
▁miles 1
▁inversión 1
▁totalmente 1
▁exige 1
▁ocupa 1
▁ciencia 1
idades 1
▁preciso 1
▁humanitario 1
▁enfermedades 1
▁grave 1
nto 1
▁cerebro 1
▁cuarto 1
▁ustedes 1
▁1996 1
▁puedo 1
▁progreso 1
▁Comunidad 1
▁visita 1
son 1
▁Irlanda 1
▁costos 1
▁integrado 1
▁condena 1
▁Oriente 1
▁creado 1
OS 1
▁ésta 1
▁enmiendas 1
▁bu 1
▁Mu 1
▁precios 1
▁costo 1
able 1
▁s 1
▁prueba 1
▁sanciones 1
▁fácil 1
cal 1
▁pago 1
▁primero 1
▁2007, 1
mb 1
pro 1
▁públicas 1
▁fu 1
ced 1
▁Hotel 1
▁riesgos 1
▁Ya 1
▁ideas 1
▁adecuada 1
▁debía 1
▁alimentos 1
tin 1
▁du 1
ki 1
▁mayores 1
▁Cooperación 1
▁Sur 1
▁Estos 1
▁marca 1
ou 1
ud 1
▁causas 1
▁responder 1
▁Proyecto 1
▁máximo 1
No 1
▁directa 1
cía 1
▁simplemente 1
▁pleno 1
▁destrucción 1
▁2009 1
▁informa 1
▁ahí 1
oc 1
5% 1
ifica 1
▁ofrecer 1
land 1
om 1
▁mínimo 1
▁1998 1
dió 1
▁Corea 1
▁estén 1
▁reciente 1
▁Brasil 1
▁Toma 1
cida 1
mba 1
▁aprobar 1
▁principalmente 1
▁asesoramiento 1
20 1
rica 1
▁mucha 1
▁Cuba 1
▁mejora 1
▁tarea 1
▁particularmente 1
▁mano 1
▁soluciones 1
▁eficaces 1
▁Turquía 1
▁ti 1
▁llamamiento 1
▁Servicio 1
puesta 1
bor 1
▁urgente 1
▁redes 1
▁esperanza 1
ER 1
▁Comisario 1
▁posibilidades 1
▁importa 1
▁palestinos 1
▁profesionales 1
▁investigaciones 1
▁registro 1
11 1
▁Reunión 1
▁asociación 1
▁actuales 1
▁mitad 1
▁« 1
▁propuesto 1
des 1
▁crea 1
▁quincuagésimo 1
▁párrafos 1
▁sexo 1
▁viven 1
° 1
▁Lu 1
▁electrónico 1
▁ordinario 1
▁mil 1
▁comunes 1
▁inversiones 1
▁100 1
ció 1
▁consenso 1
▁volver 1
▁Reglamento 1
▁continua 1
▁examina 1
▁mundiales 1
▁emp 1
▁hechos 1
▁vincula 1
ante 1
▁emergencia 1
▁realización 1
clu 1
▁libertades 1
▁celebrado 1
CI 1
▁rápido 1
▁cabe 1
▁recientemente 1
til 1
▁An 1
▁Que 1
▁Salud 1
im 1
▁indicadores 1
▁Servicios 1
▁estudiantes 1
mu 1
▁garantiza 1
▁interesante 1
Por 1
▁resto 1
▁activa 1
▁conclusión 1
torio 1
▁pequeño 1
▁rurales 1
▁transparencia 1
iva 1
▁revisión 1
▁logro 1
▁Fa 1
▁adicional 1
▁ci 1
és 1
▁ponente 1
▁Estas 1
12 1
▁mañana 1
mit 1
▁enmienda 1
▁necesitan 1
.9 1
▁clara 1
lan 1
▁celebra 1
▁legal 1
▁ta 1
▁realizados 1
▁contratación 1
▁Ga 1
▁institucional 1
▁períodos 1
▁haga 1
▁beneplácito 1
▁grande 1
▁responsable 1
▁racial 1
▁propios 1
▁1995 1
gos 1
▁minutos 1
▁Palestina 1
via 1
▁europeos 1
qu 1
▁implica 1
▁preparado 1
▁enviar 1
sis 1
▁hincapié 1
AR 1
ice 1
▁comenzar 1
▁extranjeros 1
▁familiar 1
▁especializados 1
dia 1
▁sol 1
▁requisitos 1
▁España 1
▁normal 1
▁mes 1
▁orientación 1
▁firme 1
▁Africana 1
▁Irán 1
ju 1
ieran 1
▁2008, 1
▁ciudades 1
▁To 1
40 1
bri 1
▁inicial 1
▁Ejecutivo 1
▁media 1
▁ru 1
met 1
▁ambos 1
▁definición 1
▁llama 1
▁presta 1
▁multi 1
▁disponibles 1
X 1
25 1
amiento 1
gui 1
▁Organismo 1
▁celebró 1
▁bi 1
▁Pre 1
▁sur 1
▁vulnerables 1
▁etc 1
toria 1
▁factores 1
▁Mesa 1
▁constituyen 1
ry 1
▁consumo 1
% 1
ko 1
▁queremos 1
▁viaje 1
▁simple 1
idos 1
▁respuestas 1
▁contiene 1
▁versión 1
▁encuentran 1
▁imagen 1
yo 1
ito 1
eo 1
▁minorías 1
▁qui 1
▁Porque 1
▁capítulo 1
ES 1
▁contrario 1
El 1
▁Hace 1
▁petición 1
▁afectados 1
▁aquellos 1
▁conocer 1
▁interior 1
▁actuar 1
?" 1
aba 1
▁voy 1
▁fase 1
▁adelante 1
▁asociaciones 1
▁allá 1
▁Caribe 1
▁Dis 1
▁llamado 1
▁desempeñar 1
cul 1
▁conjunta 1
▁Leona 1
gado 1
nce 1
▁UNCTAD 1
▁construir 1
▁Bu 1
▁empezar 1
▁tarde 1
▁siga 1
▁difusión 1
▁planeta 1
▁Líbano 1
▁comisión 1
▁únicamente 1
▁v 1
▁contrato 1
30 1
▁Facultativo 1
▁campo 1
▁podrán 1
▁etapa 1
▁Comercio 1
▁diversidad 1
▁noche 1
▁página 1
▁solamente 1
▁prohibición 1
J 1
ger 1
▁Examen 1
▁constante 1
▁potencial 1
▁intención 1
▁garantías 1
vis 1
▁cal 1
▁encargado 1
▁efectivo 1
▁pedir 1
▁Tenemos 1
▁plano 1
tina 1
▁quiere 1
amente 1
▁tri 1
una 1
▁europeo 1
▁deberán 1
▁reservas 1
▁arte 1
▁Sierra 1
▁calle 1
▁breve 1
▁masa 1
▁informó 1
▁competentes 1
▁celebrará 1
ivo 1
▁madre 1
▁título 1
▁propósito 1
▁Educación 1
▁Ejecutiva 1
▁expresión 1
▁sabemos 1
AN 1
UN 1
▁enorme 1
▁tenían 1
▁1° 1
▁conferencia 1
▁recordar 1
▁entrega 1
▁supone 1
▁Exteriores 1
▁interno 1
▁estudiar 1
▁abierto 1
▁ONG 1
▁Pacífico 1
▁trabajando 1
▁Fi 1
▁Australia 1
▁denuncia 1
13 1
▁destaca 1
▁velar 1
dora 1
▁Relaciones 1
▁cuotas 1
▁familiares 1
▁garantía 1
▁1990 1
▁Árabe 1
ere 1
▁Go 1
▁pie 1
▁celebración 1
▁Quiero 1
rme 1
▁estratégico 1
▁técnicas 1
mer 1
▁conciencia 1
op 1
▁próxima 1
▁III 1
▁licencia 1
▁ámbitos 1
▁Italia 1
▁aprobada 1
▁minas 1
▁bueno 1
▁ampliar 1
▁basada 1
▁afecta 1
▁pequeña 1
▁confirma 1
rí 1
▁vamos 1
▁... 1
▁isla 1
▁debates 1
▁actualidad 1
ura 1
▁religión 1
▁Ne 1
anza 1
▁corresponde 1
val 1
▁Ese 1
▁matrimonio 1
▁solicitudes 1
▁Hi 1
▁h 1
cta 1
▁Después 1
▁requiere 1
tada 1
▁jurídicos 1
rea 1
.7 1
▁Occidental 1
▁proporciona 1
▁continuar 1
▁recuperación 1
▁daños 1
▁cita 1
▁formulación 1
▁juego 1
▁expresar 1
-20 1
▁hubiera 1
▁bienestar 1
▁precio 1
▁semanas 1
▁contacto 1
ez 1
▁luchar 1
nza 1
▁Ni 1
▁aprovechar 1
▁llegado 1
▁sala 1
▁necesitamos 1
▁conducto 1
▁trato 1
▁Do 1
▁Política 1
▁busca 1
▁Subcomisión 1
duc 1
▁nadie 1
▁dio 1
▁pérdida 1
▁Timor 1
id 1
tí 1
▁poblaciones 1
▁Guinea 1
▁natural 1
▁somos 1
▁esfuerzo 1
▁clientes 1
▁Anexo 1
▁impacto 1
▁habitaciones 1
▁vivienda 1
▁prisión 1
▁aproximadamente 1
▁plantea 1
▁Asociación 1
▁creciente 1
▁examinado 1
▁estrecha 1
em 1
ist 1
▁evolución 1
▁justo 1
▁Algunos 1
▁código 1
▁clase 1
▁ocupación 1
▁intervención 1
▁humanidad 1
▁habrá 1
▁Bosnia 1
▁Todo 1
▁habla 1
▁ampliación 1
14 1
▁Inter 1
▁avances 1
▁impedir 1
▁sexagésimo 1
▁pone 1
nar 1
▁Ve 1
▁cap 1
MI 1
▁Uno 1
mor 1
flu 1
▁mental 1
▁evidente 1
▁diferencias 1
▁educa 1
▁adhesión 1
▁tercera 1
tel 1
▁"¿ 1
▁Dependencia 1
▁fuente 1
antes 1
▁Pakistán 1
ula 1
» 1
▁honor 1
▁sabe 1
▁frecuencia 1
▁economías 1
▁útil 1
ld 1
▁Son 1
cina 1
▁0 1
▁movimiento 1
gó 1
▁suficientes 1
▁recurso 1
▁rec 1
▁fra 1
▁examinó 1
▁visión 1
lin 1
▁Pública 1
▁utiliza 1
▁fronteras 1
▁aspecto 1
▁identidad 1
▁logrado 1
▁tierras 1
▁acto 1
▁hicieron 1
.6 1
▁nacionalidad 1
▁idiomas 1
▁Nos 1
▁aire 1
▁interesadas 1
▁ref 1
rma 1
▁acaba 1
▁Cada 1
dic 1
▁rápidamente 1
▁Universidad 1
▁facilita 1
▁mesa 1
▁Je 1
▁incluyen 1
▁estadísticas 1
▁Está 1
dida 1
▁aceptar 1
▁corrupción 1
▁judiciales 1
▁partida 1
▁oficiosas 1
rico 1
ea 1
▁exterior 1
▁Sudáfrica 1
tico 1
▁orador 1
▁2010 1
▁Tiene 1
▁come 1
▁compra 1
▁médico 1
▁Hemos 1
izada 1
▁elección 1
▁destino 1
▁enfermedad 1
▁probablemente 1
▁autores 1
▁periódico 1
▁1994 1
▁opciones 1
rgi 1
▁comportamiento 1
▁acontecimientos 1
▁Man 1
▁excelente 1
cl 1
▁Pi 1
▁agricultura 1
▁inf 1
▁siete 1
▁cambia 1
18 1
▁inclusión 1
▁representación 1
▁soy 1
tt 1
▁duración 1
▁ju 1
▁obstáculos 1
▁Aquí 1
▁Tras 1
▁l 1
▁opera 1
▁mensaje 1
tarios 1
▁cursos 1
▁ilícito 1
stra 1
▁elemento 1
▁Estamos 1
▁eficiencia 1
bre 1
aje 1
* 1
▁indemnización 1
— 1
▁animales 1
▁adecuado 1
▁recientes 1
▁Herzegovina 1
▁bar 1
▁sé 1
▁Desarme 1
▁Bajos 1
▁op 1
▁Sociales 1
▁vidas 1
▁dije 1
▁Wa 1
▁plenaria 1
▁adelantados 1
▁consolidación 1
▁directo 1
▁reformas 1
▁Ki 1
▁israelíes 1
ica 1
ly 1
port 1
▁extranjero 1
▁acompaña 1
▁ajuste 1
▁ataques 1
▁trabaja 1
▁privada 1
▁pronto 1
60 1
rlo 1
▁dirigentes 1
ible 1
▁mostrar 1
ino 1
endo 1
▁gusta 1
▁reitera 1
ab 1
IT 1
▁hogar 1
▁crédito 1
▁seguirá 1
▁Sede 1
▁búsqueda 1
▁decenio 1
▁campaña 1
▁basado 1
▁Comp 1
▁categorías 1
▁llamada 1
▁Popular 1
iente 1
▁dan 1
siona 1
▁activamente 1
▁comprendido 1
▁ONU 1
ite 1
16 1
▁observó 1
▁Fue 1
▁considerable 1
▁Egipto 1
▁equipos 1
▁constitucional 1
▁occidental 1
▁increíble 1
ificación 1
liza 1
▁Viena 1
▁tradicionales 1
▁Protección 1
▁termina 1
▁jurisdicción 1
▁específicas 1
▁Car 1
AD 1
▁super 1
▁Suiza 1
día 1
van 1
▁regular 1
▁rep 1
▁eficiente 1
▁Uds 1
▁Latina 1
▁Cu 1
▁candidatos 1
▁directiva 1
jan 1
oso 1
▁Islámica 1
▁organizar 1
▁primeros 1
pla 1
▁reconocer 1
▁pagar 1
▁explica 1
( 1
▁Colombia 1
▁conducta 1
▁vivir 1
▁teléfono 1
vert 1
▁participa 1
▁completamente 1
▁denuncias 1
De 1
ento 1
cial 1
▁supra 1
▁oferta 1
▁profunda 1
sion 1
▁rehabilitación 1
▁centra 1
▁emisiones 1
▁suministro 1
▁The 1
▁Insta 1
▁primaria 1
▁sucede 1
▁infancia 1
tiendo 1
▁doble 1
▁Nota 1
▁chi 1
▁k 1
▁ilegal 1
▁Somalia 1
▁Yugoslavia 1
▁otorga 1
▁Kuwait 1
17 1
▁laboral 1
▁1999, 1
▁producir 1
▁experiencias 1
▁Gestión 1
▁formuladas 1
cimiento 1
▁asilo 1
▁san 1
▁Gu 1
▁ciclo 1
▁señora 1
▁atender 1
MA 1
▁oriental 1
fund 1
▁dichos 1
CE 1
▁hacemos 1
▁establecidos 1
▁realiza 1
▁migrantes 1
▁razonable 1
▁español 1
ide 1
▁So 1
▁reglas 1
ión 1
ñ 1
▁hablando 1
én 1
01 1
▁amigos 1
▁cuidado 1
▁tomó 1
▁composición 1
▁expresó 1
▁asigna 1
▁compartir 1
▁trabajan 1
gel 1
▁tendría 1
▁hijo 1
▁enfrenta 1
/19 1
▁estructuras 1
▁deliberaciones 1
▁combina 1
▁acta 1
▁positiva 1
cip 1
▁rápida 1
mbre 1
▁Presupuesto 1
▁porcentaje 1
we 1
▁comienzo 1
▁Expertos 1
▁concluir 1
▁usuarios 1
▁consigna 1
▁levanta 1
pri 1
▁disponible 1
▁entra 1
▁tomado 1
▁Noruega 1
▁sistemática 1
▁Sección 1
▁médicos 1
cor 1
▁Señorías 1
ev 1
▁demostrado 1
nder 1
▁imágenes 1
▁X 1
▁Indonesia 1
▁Hoy 1
▁propias 1
▁comunitario 1
▁Tierra 1
▁multilaterales 1
▁desplazados 1
ificado 1
▁integrada 1
▁fiscal 1
DE 1
▁iniciar 1
▁técnico 1
▁hagan 1
▁Estatuto 1
jas 1
▁alimentaria 1
▁Ucrania 1
table 1
▁jurídicas 1
gubernamentales 1
▁costa 1
▁desafíos 1
▁desastres 1
ones 1
▁Central 1
▁previstos 1
▁ACNUR 1
▁pertinente 1
ion 1
▁lado 1
▁pocos 1
▁ambas 1
ua 1
▁radio 1
▁Señora 1
▁incorporar 1
▁Ri 1
▁término 1
▁fenómeno 1
▁Rwanda 1
▁Argentina 1
▁mandatos 1
▁estratégica 1
▁integridad 1
aria 1
▁especie 1
▁decidir 1
bar 1
▁temporal 1
▁sentencia 1
▁favorable 1
chi 1
▁escolar 1
▁w 1
▁ocho 1
▁35 1
vie 1
▁clima 1
▁euros 1
▁im 1
IS 1
▁distrito 1
▁libro 1
▁Bien 1
▁instancia 1
▁Económica 1
▁recomendó 1
▁Estrategia 1
lia 1
▁compara 1
▁servir 1
▁presentes 1
▁intento 1
▁Ello 1
EN 1
▁publicación 1
ano 1
▁industrial 1
▁Aplicación 1
▁Oriental 1
▁médica 1
dera 1
▁científicos 1
▁adolescentes 1
▁Suecia 1
▁estatuto 1
▁técnicos 1
▁dirigido 1
icio 1
▁tamaño 1
▁alienta 1
▁estipula 1
▁petróleo 1
▁cifras 1
▁reafirma 1
▁empleados 1
▁contribuye 1
▁africanos 1
Se 1
▁desarrollados 1
▁logros 1
▁remo 1
▁presidente 1
▁Económicos 1
▁Embajador 1
▁pedido 1
▁científica 1
▁♫ 1
vers 1
▁% 1
▁norte 1
▁legislativo 1
▁Tal 1
▁amenazas 1
▁dependencia 1
▁moral 1
▁viola 1
▁residencia 1
▁tasas 1
ner 1
▁electrónica 1
▁repercusiones 1
mbra 1
▁fuego 1
/20 1
▁opción 1
▁tratos 1
▁consideración 1
▁buscar 1
▁características 1
▁racismo 1
▁prensa 1
▁padre 1
▁Marco 1
▁sociedades 1
▁Z 1
99 1
IC 1
▁restricciones 1
▁consiste 1
▁interpretación 1
▁Documentos 1
resolución 1
▁000 1
▁sola 1
ts 1
▁respetar 1
▁espíritu 1
▁sustantivo 1
▁45 1
En 1
▁voto 1
▁dónde 1
▁entrar 1
▁Delito 1
ores 1
sal 1
▁Va 1
▁normativa 1
▁participan 1
mé 1
▁obra 1
▁organizada 1
▁Pu 1
▁Nuestro 1
▁institución 1
▁ejercer 1
▁crímenes 1
tima 1
▁entendimiento 1
▁terceros 1
▁capacidades 1
▁aplicable 1
▁organizado 1
▁norma 1
▁superar 1
CP 1
eros 1
▁(1 1
▁Hu 1
AS 1
▁Nigeria 1
▁Serbia 1
▁exposición 1
ral 1
▁reclamaciones 1
tergubernamental 1
zar 1
▁demuestra 1
▁francés 1
gua 1
▁comisiones 1
hu 1
97 1
▁ambientales 1
▁rechaza 1
▁inferior 1
▁intenta 1
lega 1
▁Liberia 1
▁Ge 1
▁Islas 1
Es 1
est 1
▁cree 1
▁transmit 1
▁individual 1
ay 1
▁democrático 1
▁limitado 1
▁Muchas 1
▁idioma 1
tero 1
▁Burundi 1
▁destinados 1
▁ciertas 1
▁Jo 1
▁dichas 1
▁carrera 1
▁pudiera 1
▁subraya 1
▁elegir 1
RI 1
pul 1
▁áreas 1
▁manos 1
▁Estoy 1
▁larga 1
▁contratos 1
▁comunitaria 1
▁Ambiente 1
▁operacionales 1
▁llevado 1
▁Puede 1
ico 1
▁desarrolla 1
mica 1
ff 1
▁delincuencia 1
▁ambiental 1
▁podían 1
▁foto 1
ología 1
▁habitantes 1
▁Siria 1
OM 1
▁debidamente 1
▁Decide 1
▁Primer 1
illo 1
▁área 1
▁democrática 1
▁hacía 1
▁em 1
▁Coordinación 1
ena 1
bla 1
▁equilibrio 1
▁Bi 1
▁aborda 1
▁preocupaciones 1
▁iba 1
stro 1
▁ratificación 1
03 1
ent 1
▁colegas 1
▁colectiva 1
.1) 1
▁similares 1
▁Cámara 1
▁solidaridad 1
▁elaborado 1
udi 1
▁éstos 1
▁inmediatamente 1
zi 1
▁fo 1
▁Otros 1
▁Pen 1
▁mismas 1
▁Ad 1
▁árabe 1
▁complejo 1
▁Chile 1
▁recuerda 1
▁provoca 1
▁48 1
▁comida 1
▁vemos 1
▁activos 1
▁quería 1
▁aprender 1
▁fija 1
au 1
/4 1
/58/ 1
▁consentimiento 1
▁digital 1
▁oradores 1
▁puesta 1
▁Cuadro 1
▁quizá 1
▁esenciales 1
▁detallada 1
▁ocasión 1
fri 1
▁índole 1
▁alentar 1
▁determinados 1
AL 1
▁quién 1
▁comparación 1
▁Chipre 1
▁indicado 1
▁generación 1
▁Prevención 1
▁reales 1
▁sede 1
▁aéreo 1
cita 1
▁continúa 1
▁1993 1
▁regula 1
▁quieren 1
45 1
▁podido 1
▁Be 1
▁estados 1
▁color 1
ial 1
▁bilaterales 1
96 1
▁CA 1
▁col 1
izados 1
lé 1
/55/ 1
bro 1
ín 1
▁concretos 1
▁producido 1
▁proceda 1
▁original 1
form 1
▁componente 1
▁federal 1
▁música 1
tores 1
▁mira 1
▁t 1
▁seres 1
▁procesa 1
▁sustancias 1
▁diez 1
▁beneficio 1
▁viene 1
▁cri 1
serv 1
▁32 1
▁meta 1
cional 1
▁intelectual 1
▁inmediato 1
▁ocasiones 1
cien 1
▁presión 1
▁posterior 1
▁2005. 1
ler 1
scripción 1
mbi 1
ord 1
▁Debe 1
▁For 1
▁buenas 1
▁exhorta 1
▁solicitar 1
▁externa 1
▁componentes 1
cciones 1
ien 1
duzca 1
ation 1
▁seguido 1
▁34 1
ndido 1
mática 1
▁Marruecos 1
▁operación 1
▁37 1
▁tendencia 1
▁vecinos 1
▁Federal 1
illa 1
▁computadora 1
▁definitiva 1
fre 1
▁protocolo 1
▁54 1
▁Personal 1
▁demora 1
uda 1
▁Apoyo 1
▁tampoco 1
eg 1
▁Per 1
▁separado 1
▁cáncer 1
▁ilícita 1
▁consumidores 1
UR 1
▁Ru 1
▁esperar 1
▁et 1
▁anteriormente 1
▁cara 1
/3 1
▁vía 1
▁Costa 1
▁acordado 1
▁Ministros 1
▁encaminadas 1
ego 1
▁partidos 1
▁explicar 1
ow 1
▁prestando 1
▁numerosas 1
▁tuviera 1
▁segura 1
▁hogares 1
▁unidad 1
▁permita 1
▁numerosos 1
▁básica 1
▁pas 1
▁crítica 1
/59/ 1
iéndose 1
pos 1
▁Regional 1
▁significativa 1
▁administrativas 1
dí 1
▁Más 1
ual 1
▁halla 1
liber 1
mite 1
▁Era 1
▁edificio 1
▁Darfur 1
▁Cuestiones 1
▁nombramiento 1
▁sentir 1
▁corto 1
▁debían 1
▁Les 1
ndi 1
▁salir 1
NU 1
▁bosques 1
▁realizada 1
▁despliegue 1
▁Web 1
35 1
▁puerta 1
▁empresarial 1
▁encargada 1
▁brinda 1
▁Gaza 1
▁ten 1
▁reconstrucción 1
▁Haití 1
▁quinto 1
▁Sistema 1
▁estableció 1
ji 1
▁observadores 1
▁Ko 1
▁calcula 1
▁terminar 1
▁rural 1
▁mortalidad 1
▁límites 1
▁Des 1
▁Bretaña 1
▁incluya 1
▁película 1
▁excepción 1
▁Human 1
▁secundaria 1
▁próximos 1
▁cámara 1
▁dignidad 1
/5 1
ier 1
rlos 1
cido 1
rd 1
cept 1
▁gas 1
rte 1
▁genera 1
▁multilateral 1
▁presentada 1
▁Austria 1
▁fund 1
▁cabeza 1
▁detenidos 1
▁ordenación 1
▁33 1
▁recon 1
arse 1
▁auditoría 1
▁representan 1
▁avanzar 1
Ivoire 1
▁Discriminación 1
▁hará 1
▁entidad 1
▁analizar 1
▁destacar 1
▁adecuadas 1
▁Autoridad 1
▁arma 1
▁conexas 1
▁identificar 1
▁ii 1
▁video 1
▁afectan 1
▁abs 1
orient 1
mó 1
▁1992 1
▁distancia 1
lec 1
▁LA 1
▁justa 1
▁paga 1
▁entraña 1
gna 1
▁Operaciones 1
▁determinado 1
len 1
▁guarda 1
▁abuso 1
▁Tenien 1
▁Fu 1
▁especifica 1
▁televisión 1
26 1
▁tendrán 1
▁comunicar 1
▁ponga 1
▁Dios 1
▁documentación 1
icia 1
▁decidido 1
▁elevado 1
▁publica 1
▁positivo 1
▁utilizando 1
▁alcanzado 1
▁Asesor 1
▁or 1
▁36 1
78 1
▁circulación 1
▁gu 1
Re 1
▁Ac 1
eron 1
tario 1
▁habido 1
▁provincia 1
▁conjuntamente 1
▁hacerse 1
▁combustible 1
▁superficie 1
▁vehículos 1
▁Políticos 1
▁financiar 1
23 1
▁soberanía 1
/60/ 1
▁demostrar 1
▁copia 1
▁colabora 1
▁específicos 1
▁organiza 1
esta 1
▁mínima 1
95 1
▁Zelandia 1
▁potencia 1
▁aparece 1
▁volumen 1
▁continente 1
▁registrado 1
▁indicar 1
▁Croacia 1
▁privadas 1
▁Ti 1
▁reto 1
▁capa 1
lex 1
▁IV 1
/63/ 1
▁estable 1
▁escuchar 1
▁situado 1
▁Primera 1
▁ejemplos 1
▁modificar 1
▁integrar 1
▁usa 1
▁Hasta 1
84 1
aron 1
▁correo 1
▁Côte 1
▁Wi 1
▁Oficiales 1
▁Quinta 1
▁comprende 1
▁controlar 1
▁39 1
▁cualquiera 1
▁calendario 1
▁método 1
▁destinadas 1
66 1
▁cultivo 1
▁ocurre 1
▁dura 1
▁apertura 1
▁Tengo 1
▁promulga 1
▁étnico 1
/57/ 1
sol 1
rie 1
▁exactamente 1
21 1
▁gobernanza 1
▁juntos 1
▁víctima 1
▁similar 1
▁aumentado 1
▁salva 1
▁territorial 1
▁ocupado 1
vin 1
67 1
nio 1
lica 1
gio 1
jó 1
▁Polonia 1
▁naciones 1
wi 1
▁gana 1
▁gen 1
ON 1
cra 1
▁respeta 1
▁exportación 1
▁aprendizaje 1
▁Sólo 1
▁procede 1
▁darle 1
doras 1
▁1991 1
▁concreto 1
▁indispensable 1
▁precisa 1
▁siquiera 1
rup 1
▁observar 1
fra 1
▁estatales 1
▁Georgia 1
▁cumbre 1
▁Sí 1
ticos 1
▁pacientes 1
▁conocido 1
▁conversaciones 1
▁legislativas 1
/56/ 1
▁Pres 1
▁encarga 1
▁diputados 1
▁Adjunto 1
▁integral 1
▁duradera 1
▁créditos 1
ID 1
Con 1
200 1
▁células 1
▁cometido 1
▁probable 1
▁Uganda 1
tras 1
▁sometido 1
▁agrícola 1
▁tradicional 1
▁Segunda 1
▁futuras 1
▁ejecutar 1
▁comprometido 1
▁transparente 1
▁Todas 1
▁2004. 1
▁corazón 1
▁proporción 1
▁encuesta 1
▁prestado 1
▁2006. 1
▁institucionales 1
▁limitar 1
▁introducción 1
▁permiso 1
▁beneficia 1
▁racional 1
▁celebradas 1
rri 1
▁sexuales 1
▁ciertos 1
ot 1
▁International 1
dero 1
▁posee 1
▁foro 1
▁penales 1
lina 1
76 1
▁Grecia 1
▁Nuestra 1
▁desechos 1
▁comité 1
▁paquete 1
▁Pri 1
Z 1
▁ga 1
▁Perú 1
▁mencionado 1
▁factor 1
▁adopten 1
▁mas 1
▁1, 1
▁Policía 1
▁Directiva 1
▁selecciona 1
▁comprensión 1
▁Jefe 1
int 1
▁Congreso 1
▁Corr 1
▁presentadas 1
▁introducir 1
taria 1
▁anuales 1
69 1
presión 1
▁Quisiera 1
▁pendientes 1
▁permanentes 1
▁detalles 1
▁conservación 1
▁líderes 1
▁Fiscal 1
▁adopte 1
▁limita 1
IN 1
▁formula 1
gas 1
▁físico 1
▁amor 1
▁Cre 1
▁oportuna 1
▁prestaciones 1
▁tratando 1
▁realizadas 1
▁bio 1
▁presidencia 1
▁popular 1
▁cabal 1
▁mejoras 1
▁Debemos 1
▁Etiopía 1
▁lu 1
▁Guatemala 1
▁evaluaciones 1
74 1
▁igualmente 1
▁desempeño 1
▁deberíamos 1
od 1
▁observación 1
▁educativo 1
▁coherente 1
▁pronuncia 1
▁ofrecen 1
▁negociación 1
ático 1
este 1
▁previstas 1
▁sabía 1
▁Add 1
TE 1
▁junta 1
/62/ 1
▁Eliminación 1
▁perspectivas 1
24 1
▁goza 1
▁finalmente 1
▁migración 1
osa 1
▁legales 1
▁Algunas 1
▁restaurante 1
▁comentarios 1
▁aquel 1
▁permitirá 1
▁daño 1
▁mala 1
▁pérdidas 1
▁asumir 1
▁Tu 1
▁coordinar 1
cua 1
▁agradecimiento 1
arios 1
▁libros 1
29 1
19 1
continuación 1
▁toca 1
▁múltiples 1
▁obtenido 1
▁utilizado 1
▁' 1
lidad 1
media 1
mini 1
▁pacífica 1
▁organismo 1
gente 1
▁Asistencia 1
▁preventiva 1
▁estará 1
▁publicado 1
▁proceder 1
▁adecuados 1
▁encargados 1
/61/ 1
▁determinadas 1
▁arriba 1
▁alguno 1
▁prima 1
▁disminución 1
voc 1
dro 1
33 1
▁hubo 1
tiza 1
51 1
▁determina 1
▁Portugal 1
▁Muchos 1
▁42 1
▁mata 1
7% 1
▁publicar 1
enda 1
ris 1
▁abogado 1
▁retos 1
▁muerto 1
▁Del 1
▁tendencias 1
▁someter 1
▁metros 1
▁Can 1
22 1
iga 1
ag 1
▁49 1
▁2009, 1
▁resumen 1
▁efectivos 1
ire 1
▁ejército 1
▁erradicación 1
▁voz 1
mpli 1
▁post 1
▁mencionar 1
▁limitaciones 1
▁vital 1
▁geográfica 1
▁diseñado 1
▁2003. 1
▁capaz 1
▁modalidades 1
▁buenos 1
▁Suplemento 1
▁on 1
▁herramientas 1
▁abusos 1
83 1
▁procedentes 1
▁2007. 1
▁aprobadas 1
▁Territorio 1
.8 1
▁Roma 1
▁encanta 1
▁Sus 1
▁asignación 1
▁vivo 1
mon 1
▁afectadas 1
▁Sostenible 1
▁inmediata 1
▁constituir 1
▁Bar 1
▁/ 1
▁ge 1
ust 1
▁cargos 1
▁comprender 1
▁exportaciones 1
▁israelí 1
▁selección 1
▁58 1
▁eje 1
07 1
▁44 1
▁estilo 1
▁77 1
▁pág 1
▁influencia 1
▁innovación 1
tención 1
▁desempleo 1
lá 1
mpa 1
▁perjuicio 1
▁Medidas 1
▁adultos 1
▁aplicaciones 1
▁57 1
▁* 1
▁Argelia 1
▁laboratorio 1
rado 1
▁relieve 1
▁parecer 1
▁Finlandia 1
▁máxima 1
artículo 1
▁negocios 1
▁Fo 1
curri 1
▁reglamenta 1
▁é 1
▁siente 1
80 1
▁evento 1
▁particulares 1
▁contingentes 1
▁dé 1
▁aumenta 1
▁indican 1
▁justifica 1
del 1
▁euro 1
eña 1
▁espero 1
▁difíciles 1
▁mente 1
mbo 1
▁criterio 1
▁alumnos 1
▁disponibilidad 1
▁llegó 1
nica 1
▁Val 1
▁reclamación 1
▁metas 1
fica 1
▁Sta 1
bia 1
▁efectivamente 1
▁bases 1
▁promedio 1
▁cadena 1
79 1
▁bancos 1
▁Dirección 1
▁inmigración 1
▁disciplina 1
iz 1
▁visitas 1
▁Resolución 1
▁suministra 1
▁anuncia 1
▁investigar 1
▁Checa 1
▁periódicos 1
▁fre 1
▁debida 1
▁Fuerza 1
▁considerarse 1
▁declara 1
▁55 1
▁disfrutar 1
▁SIDA 1
fin 1
cómo 1
▁coste 1
▁salario 1
▁administrativos 1
▁géneros 1
▁suficientemente 1
rig 1
▁desempeña 1
▁merece 1
.30 1
▁verdadera 1
▁informado 1
▁individuales 1
▁carretera 1
▁incremento 1
▁Mientras 1
▁revela 1
▁41 1
▁reconciliación 1
▁70 1
▁vínculos 1
▁salida 1
6% 1
tá 1
▁n 1
▁80 1
▁Bélgica 1
▁examinando 1
▁puso 1
▁plataforma 1
▁respectivamente 1
uta 1
plo 1
mático 1
▁Belarús 1
como 1
▁Relatora 1
▁aplicables 1
▁época 1
pec 1
TA 1
▁Ibíd 1
▁trate 1
▁Vicepresidente 1
▁mapa 1
▁fiscales 1
bol 1
▁contempla 1
plica 1
▁cam 1
▁pudieran 1
produc 1
▁firmado 1
▁testigos 1
República 1
▁Interior 1
ibilidad 1
▁satisfacer 1
cord 1
▁cometidos 1
▁letra 1
70 1
▁concesión 1
▁permitan 1
75 1
▁aporta 1
side 1
▁adquisición 1
hor 1
▁ideal 1
ster 1
▁señalado 1
▁miedo 1
▁alimentación 1
▁incorporación 1
ibles 1
▁variedad 1
▁mantiene 1
▁transmitir 1
▁tránsito 1
▁Tra 1
▁revisar 1
▁vistas 1
▁medicamentos 1
zó 1
▁suelo 1
▁mercancías 1
▁ojos 1
▁magistrados 1
▁finalidad 1
▁rea 1
▁extrema 1
▁funcionario 1
rm 1
2% 1
▁imposible 1
▁intervenciones 1
▁dirigidas 1
▁seguros 1
▁permiten 1
▁lengua 1
▁insuficiente 1
▁90 1
▁inicio 1
br 1
▁2001. 1
▁independientes 1
▁PNUMA 1
▁vulnerabilidad 1
▁joven 1
icos 1
ora 1
-1 1
ant 1
▁Cha 1
▁lejos 1
▁2002. 1
▁asignado 1
▁especies 1
▁disfrute 1
▁llevó 1
▁Tercera 1
▁proporcione 1
▁aguas 1
▁2000. 1
1, 1
▁rein 1
▁Ab 1
▁básico 1
▁presentados 1
44 1
▁pagos 1
▁argumento 1
▁complace 1
▁fui 1
▁inspira 1
▁señal 1
▁existente 1
▁blanco 1
▁agrícolas 1
▁sigan 1
edi 1
tando 1
▁sumamente 1
▁Esos 1
Rev 1
RE 1
vel 1
filia 1
27 1
▁satélite 1
▁lectura 1
▁tomando 1
▁adapta 1
▁2008. 1
▁correcciones 1
▁frecuente 1
▁51 1
73 1
▁votar 1
▁www 1
▁Antes 1
▁proveedores 1
▁viajes 1
▁53 1
▁acceder 1
02 1
▁establezca 1
▁CE 1
▁definir 1
▁prevista 1
▁puedes 1
▁dirigir 1
▁malos 1
gro 1
▁ejecuta 1
tamos 1
▁46 1
▁crucial 1
▁histórico 1
▁atrás 1
▁dicen 1
68 1
▁experimenta 1
38 1
stre 1
▁Tailandia 1
▁cocina 1
▁penas 1
ting 1
▁sirve 1
▁Sol 1
▁Rica 1
▁historias 1
lización 1
eño 1
▁limitada 1
▁dedicado 1
integr 1
▁momentos 1
▁vaya 1
▁cierta 1
▁pretende 1
▁Árabes 1
SP 1
▁Malasia 1
▁habitual 1
▁aplicado 1
▁cientos 1
▁avance 1
▁Recursos 1
▁respectivos 1
▁moneda 1
▁biológica 1
31 1
▁nacimiento 1
▁químicos 1
▁(2001) 1
▁sexto 1
▁respond 1
▁entiende 1
▁soldados 1
▁Alta 1
▁espacial 1
▁apropiado 1
▁Filipinas 1
ED 1
▁espaciales 1
▁intentar 1
▁47 1
▁Ke 1
▁unidades 1
3% 1
▁ulterior 1
▁consejo 1
▁cha 1
▁modelos 1
▁adoptada 1
▁consta 1
▁humanitarias 1
▁tarjeta 1
▁pienso 1
▁Real 1
▁escucha 1
81 1
vu 1
▁Túnez 1
▁salvo 1
▁Dinamarca 1
▁reintegración 1
▁software 1
▁ejecutivo 1
▁audiencia 1
▁solicitado 1
▁guía 1
▁asegura 1
▁frontera 1
▁examine 1
▁raíz 1
▁mediano 1
▁reunir 1
▁marino 1
▁verdadero 1
▁formulada 1
▁establecidas 1
▁CO 1
▁Miembro 1
▁quizás 1
▁Ciencia 1
▁38 1
leta 1
▁Refugiados 1
▁permitido 1
▁Red 1
▁imponer 1
▁tus 1
cel 1
▁aprecia 1
▁convenios 1
vol 1
34 1
▁aeropuerto 1
▁antigua 1
▁Acoge 1
▁pat 1
▁seminarios 1
▁seminario 1
▁presupuestario 1
▁enlace 1
▁supervisar 1
▁ataque 1
ería 1
▁involucra 1
▁párrs 1
▁200 1
▁reciben 1
▁objetos 1
▁Santa 1
4% 1
05 1
▁puerto 1
▁Myanmar 1
parte 1
▁pasó 1
▁56 1
▁considerado 1
▁entrevista 1
▁gratuita 1
▁raza 1
cé 1
bili 1
puesto 1
▁incorpora 1
▁izquierda 1
DI 1
▁apropiadas 1
▁acumula 1
▁hospital 1
▁52 1
▁utilizan 1
▁comenzó 1
▁equitativa 1
▁referente 1
▁capaces 1
▁notable 1
rías 1
▁Bangladesh 1
▁compleja 1
▁desafío 1
▁compañía 1
posición 1
▁torno 1
Á 1
8% 1
▁impuestos 1
▁altos 1
▁cooperar 1
▁cifra 1
▁presentan 1
▁Potencia 1
▁éstas 1
3) 1
28 1
48 1
▁leer 1
▁1998, 1
▁desarrollado 1
▁deriva 1
▁efectuar 1
ografía 1
▁electoral 1
37 1
▁indicó 1
▁convertido 1
▁generar 1
damente 1
▁positivos 1
▁prostitución 1
nico 1
▁Supervisión 1
forma 1
▁nueve 1
ológica 1
▁manifiesto 1
▁practica 1
▁emplea 1
▁43 1
fir 1
▁gama 1
▁Observa 1
▁Actualmente 1
▁impulso 1
▁superiores 1
▁Ob 1
SA 1
▁requisito 1
61 1
87 1
▁revisado 1
▁árabes 1
▁Du 1
▁km 1
▁62 1
ñe 1
▁estrechamente 1
▁coherencia 1
▁ONUDI 1
▁posteriormente 1
▁camina 1
SE 1
▁voluntarias 1
▁personales 1
▁medicina 1
▁juez 1
71 1
▁go 1
▁activo 1
▁incluyendo 1
▁Mantenimiento 1
▁Rumania 1
▁Civil 1
jar 1
▁micro 1
▁voluntaria 1
▁convertir 1
▁2, 1
▁encontramos 1
dé 1
ima 1
iste 1
▁iniciado 1
▁Ecuador 1
▁Cabe 1
4) 1
guard 1
▁negocia 1
▁índice 1
▁profundo 1
▁cumplido 1
▁moderna 1
▁Aprobación 1
90 1
tales 1
▁ruta 1
▁contribuyen 1
▁europeas 1
▁desplazamiento 1
▁concentra 1
▁recibió 1
▁Azerbaiyán 1
▁departamentos 1
▁alimenta 1
▁Sha 1
Ha 1
▁creó 1
RA 1
▁autorización 1
▁condenado 1
▁concreta 1
▁mejoramiento 1
▁noticias 1
▁rendimiento 1
ard 1
▁abrir 1
▁Bulgaria 1
▁prolonga 1
▁decide 1
▁Promoción 1
CA 1
▁promesa 1
▁distribuir 1
gia 1
▁Droga 1
▁OMC 1
tener 1
▁habitación 1
▁Exhorta 1
▁meridional 1
▁Angola 1
1) 1
▁estudia 1
▁liderazgo 1
▁sensibilización 1
▁Iniciativa 1
▁Sobre 1
▁básicas 1
Hábitat 1
lig 1
▁Venezuela 1
▁líneas 1
▁asesinato 1
▁sueño 1
▁vio 1
94 1
▁votado 1
▁compromete 1
▁Ver 1
▁significativo 1
ños 1
▁cer 1
▁acepta 1
▁ingreso 1
77 1
▁dolor 1
PE 1
▁ligeras 1
▁Alianza 1
▁París 1
▁realice 1
ador 1
▁pl 1
ph 1
▁sitios 1
▁metodología 1
▁urgencia 1
▁Kenya 1
pli 1
▁ocupan 1
▁Introducción 1
▁estuvo 1
ah 1
▁ratificado 1
▁administra 1
▁expone 1
▁usando 1
OR 1
▁Cultura 1
▁totalidad 1
▁financia 1
▁controles 1
▁reducido 1
▁suerte 1
▁residentes 1
▁sonido 1
▁explota 1
▁decía 1
▁agricultores 1
▁campañas 1
sia 1
▁Civiles 1
32 1
▁juzga 1
▁aun 1
mov 1
▁redacción 1
▁Supremo 1
▁podríamos 1
▁Sal 1
▁planos 1
▁adaptación 1
stitución 1
/2000/ 1
▁coloca 1
▁playa 1
▁aldea 1
▁Reconociendo 1
▁edificios 1
:// 1
▁ultraterrestre 1
▁negro 1
ular 1
▁tienda 1
04 1
▁jueces 1
▁Expresa 1
▁globalización 1
AM 1
▁Lanka 1
1% 1
▁vuelo 1
▁confi 1
▁reglamentos 1
terinstitucional 1
▁verificación 1
▁competencias 1
▁hambre 1
CO 1
▁podamos 1
▁Financiación 1
misión 1
visión 1
▁armadas 1
▁denomina 1
▁administrativo 1
89 1
▁llena 1
▁incrementar 1
▁aprobados 1
▁hice 1
▁realizan 1
▁Lisboa 1
▁garantice 1
▁pertenece 1
▁partido 1
ity 1
▁prioritaria 1
▁Media 1
chos 1
fí 1
ábamos 1
▁fundamento 1
09 1
public 1
▁fabricación 1
▁destinado 1
▁armado 1
▁moderno 1
▁terrestre 1
▁j 1
dura 1
▁logra 1
▁Hungría 1
▁Pueblo 1
reg 1
eti 1
▁baño 1
▁Montenegro 1
▁continúe 1
▁excepcional 1
▁CP 1
▁jefes 1
▁Saudita 1
▁Arabia 1
▁peso 1
▁robot 1
▁administrativa 1
illas 1
cionales 1
▁planta 1
parti 1
▁velocidad 1
▁represión 1
tino 1
▁define 1
ug 1
▁hermano 1
cado 1
▁respalda 1
▁sanitaria 1
▁Nepal 1
▁obligatoria 1
▁registrada 1
▁religiosas 1
▁desastre 1
▁inteligente 1
ted 1
▁estimaciones 1
▁(2004) 1
▁impunidad 1
▁Estudi 1
igu 1
▁Fe 1
bur 1
part 1
▁conexión 1
▁abajo 1
▁aceptación 1
▁gasto 1
▁regla 1
▁firmemente 1
▁flexibilidad 1
Sur 1
▁contaminación 1
ty 1
▁ajusta 1
▁requieren 1
americano 1
▁ocurrido 1
▁individuos 1
▁corta 1
▁Podemos 1
▁oposición 1
▁obras 1
eta 1
▁inicia 1
▁estándar 1
▁Sri 1
▁notificación 1
▁llevan 1
▁fallo 1
▁vive 1
▁previa 1
▁asentamientos 1
▁derecha 1
▁corrientes 1
▁límite 1
▁coopera 1
▁revisada 1
▁coche 1
▁infra 1
▁IN 1
▁plantas 1
▁Movimiento 1
▁Luego 1
Leste 1
▁reforz 1
▁nación 1
▁carbono 1
▁subprograma 1
▁VI 1
▁contribuido 1
/2001/ 1
Ma 1
▁consolidar 1
▁insulares 1
▁Cor 1
▁desee 1
▁conecta 1
▁negativa 1
▁ausencia 1
▁perder 1
▁nuevamente 1
93 1
▁nombres 1
▁disponer 1
▁conexos 1
up 1
▁Or 1
▁formato 1
▁Ber 1
▁Ci 1
ique 1
53 1
▁pudo 1
gada 1
▁artista 1
▁profundamente 1
ético 1
▁poli 1
▁comités 1
55 1
▁adopta 1
▁is 1
▁correcta 1
▁exclusión 1
▁inteligencia 1
▁convencido 1
▁interpreta 1
íamos 1
▁llamar 1
VI 1
▁primordial 1
▁felicitar 1
▁consecución 1
▁diciendo 1
▁usuario 1
▁Eritrea 1
▁comprar 1
▁caja 1
▁intolerancia 1
▁ilegales 1
▁recoge 1
PA 1
7) 1
▁procura 1
▁ciento 1
Г 1
▁manual 1
▁privados 1
rez 1
▁Defensa 1
▁viviendas 1
▁cumplan 1
AT 1
▁equivalente 1
end 1
36 1
▁Destaca 1
▁futura 1
▁pese 1
▁votos 1
ze 1
ño 1
▁específica 1
vas 1
▁pensamos 1
▁movimientos 1
▁menciona 1
▁transmisión 1
▁estrellas 1
▁suya 1
▁ventajas 1
▁& 1
cap 1
▁pensamiento 1
▁15.00 1
▁tuvieron 1
▁cláusula 1
▁convención 1
▁record 1
▁PMA 1
▁textos 1
▁Decenio 1
▁inmigrantes 1
her 1
▁consciente 1
tic 1
▁funcionar 1
▁chino 1
▁compañías 1
▁instrucciones 1
▁mantenga 1
▁vuelve 1
www 1
▁recurrir 1
85 1
▁10.00 1
caso 1
ub 1
92 1
▁ritmo 1
▁anima 1
▁Otra 1
▁duplica 1
▁error 1
▁expresado 1
▁Año 1
▁serio 1
ang 1
▁asistir 1
▁experimento 1
▁palestina 1
gh 1
▁normativo 1
▁Jordania 1
▁retraso 1
bli 1
▁seguía 1
q 1
▁aplicando 1
47 1
▁identificación 1
zos 1
▁turismo 1
▁orgánico 1
▁sufrimiento 1
▁integrante 1
▁visual 1
▁aportar 1
▁analiza 1
▁Común 1
nacional 1
▁creen 1
▁Jefes 1
▁Eslovenia 1
▁61 1
▁competente 1
▁reconocido 1
▁relativamente 1
▁acelerar 1
▁habida 1
▁abogados 1
/2004/ 1
▁realizando 1
▁consultar 1
▁59 1
▁colectivo 1
▁Estadística 1
▁transacciones 1
65 1
▁relacionada 1
▁produce 1
▁causado 1
▁dando 1
▁mirar 1
AP 1
SR 1
▁vinculante 1
▁vino 1
▁garantizado 1
▁formulado 1
88 1
▁diario 1
ví 1
▁utilizados 1
activa 1
▁sacar 1
▁presentara 1
▁exista 1
▁UNFPA 1
▁pantalla 1
▁añadir 1
▁val 1
▁consideran 1
▁oficio 1
▁castigo 1
▁defender 1
▁digo 1
▁esperamos 1
▁Otro 1
▁Actividades 1
▁Procedimiento 1
americana 1
▁eficazmente 1
▁fabrica 1
43 1
▁consideró 1
▁patrocinadores 1
▁Gar 1
▁parcial 1
▁temprana 1
▁nacido 1
▁sujeta 1
▁estadounidenses 1
▁detenido 1
▁OIT 1
▁autorizado 1
▁Han 1
72 1
▁discu 1
▁cuestionario 1
imi 1
▁simplifica 1
imo 1
▁actuación 1
▁acusado 1
▁Jerusalén 1
▁Población 1
▁Espero 1
▁vacuna 1
izó 1
▁fotos 1
▁mencionados 1
▁impone 1
▁carece 1
In 1
▁exigir 1
▁específicamente 1
/2002/ 1
▁cuál 1
ring 1
▁pase 1
63 1
▁reconocida 1
mentar 1
ü 1
▁sostenibilidad 1
▁previo 1
▁imparti 1
39 1
und 1
ciente 1
▁manifesta 1
▁conveniente 1
-2 1
iano 1
▁hoja 1
▁preocupado 1
▁exclusivamente 1
▁certificado 1
▁absoluto 1
tización 1
▁New 1
▁Dado 1
ológico 1
▁toneladas 1
98 1
▁utilice 1
▁dijeron 1
IP 1
▁Macedonia 1
▁Párrafo 1
▁Equipo 1
▁vuelta 1
▁declaró 1
pp 1
tec 1
▁nu 1
▁verde 1
ST 1
▁describe 1
▁formuló 1
▁priva 1
muni 1
▁extradición 1
▁(2 1
clar 1
▁cliente 1
▁lleve 1
▁bal 1
ker 1
▁insolvencia 1
▁pasando 1
▁aplican 1
▁Infancia 1
▁cobertura 1
▁St 1
▁deporte 1
Q 1
▁precisamente 1
ley 1
▁regreso 1
mm 1
-3 1
▁quedan 1
ben 1
▁prohíbe 1
▁reparación 1
▁castiga 1
▁río 1
▁elevada 1
▁terminado 1
▁debajo 1
/2003/ 1
siderablemente 1
▁aceptable 1
▁comunicado 1
human 1
▁motor 1
▁memoria 1
line 1
▁Libia 1
▁encima 1
54 1
▁fueran 1
▁adelanto 1
▁creemos 1
▁Pueden 1
▁básicamente 1
▁cantidades 1
▁convenido 1
▁subregionales 1
fina 1
▁criminal 1
▁sustancial 1
▁saldo 1
9% 1
▁séptimo 1
▁teoría 1
▁domina 1
▁Universal 1
▁incumplimiento 1
▁medioambiental 1
▁redonda 1
41 1
▁pul 1
imiento 1
▁ocupados 1
▁Terrorismo 1
ética 1
Pro 1
▁intensificar 1
▁pocas 1
▁complementaria 1
▁formar 1
86 1
▁piensa 1
▁Camboya 1
▁Senegal 1
▁genocidio 1
▁sufrido 1
▁montaña 1
▁convertirse 1
cil 1
▁peor 1
▁parecen 1
59 1
▁aportan 1
▁aprend 1
▁cama 1
▁energética 1
▁Reafirmando 1
▁ganar 1
▁diplomática 1
▁participado 1
cid 1
▁publicaciones 1
▁Investigación 1
▁dimensión 1
▁vale 1
▁herramienta 1
▁establecida 1
dec 1
▁estuviera 1
aña 1
▁Administrativos 1
MIN 1
▁encuentre 1
▁fotografía 1
▁autora 1
▁periódicamente 1
▁lenguaje 1
celera 1
▁enfoques 1
▁empieza 1
▁Tortura 1
▁rendición 1
▁separación 1
▁TED 1
▁vías 1
▁500 1
▁actitud 1
ult 1
▁Racial 1
▁rodea 1
▁2) 1
▁visitar 1
46 1
▁máquina 1
▁etapas 1
▁asesor 1
▁apruebe 1
▁estaría 1
▁modificación 1
▁operacional 1
Firmado 1
▁gubernamental 1
▁reclamante 1
mico 1
▁formal 1
▁agrega 1
▁reproductiva 1
▁contactos 1
▁alternativas 1
▁perdido 1
cieron 1
pondrá 1
8) 1
▁impuesto 1
tividad 1
▁programación 1
tiende 1
▁defensores 1
ell 1
▁desempeñan 1
▁proporcionado 1
▁Fundación 1
▁gradual 1
▁Beijing 1
▁Lituania 1
64 1
▁Otras 1
cent 1
▁conseguido 1
ef 1
▁iii 1
▁Queda 1
▁actuaciones 1
▁campos 1
2/ 1
tema 1
bel 1
▁jefe 1
▁interesa 1
▁captura 1
▁brindar 1
▁XXI 1
▁cuentan 1
▁We 1
oro 1
▁década 1
▁elegido 1
▁futuros 1
▁cartas 1
▁presentará 1
▁documenta 1
▁presupuestarias 1
▁estatal 1
▁extraordinaria 1
▁inquietud 1
▁Invita 1
▁considere 1
▁barrio 1
▁clases 1
▁movilización 1
▁hiciera 1
/2005/ 1
▁ignora 1
▁enuncia 1
▁viable 1
▁bebé 1
= 1
▁correcto 1
▁vigésimo 1
▁renovable 1
▁participen 1
42 1
▁deficiencias 1
▁convenciones 1
▁compatible 1
▁páginas 1
▁Familia 1
Cuál 1
▁Viet 1
▁ampliamente 1
▁esforz 1
– 1
▁corresponda 1
▁erradicar 1
▁exámenes 1
▁legítima 1
▁obliga 1
tur 1
▁renta 1
vid 1
▁histórica 1
IV 1
▁preparativos 1
▁negocio 1
ece 1
▁productores 1
▁absolutamente 1
▁Incluso 1
▁quedar 1
-19 1
▁aclara 1
bul 1
▁haberse 1
▁ruso 1
gal 1
▁: 1
▁intensifica 1
CT 1
▁bajos 1
56 1
▁flexible 1
▁muestran 1
▁arbitraria 1
▁Usted 1
dra 1
▁Sírvanse 1
pusieron 1
▁Acta 1
▁caracteriza 1
58 1
▁agrava 1
91 1
▁300 1
▁patrimonio 1
▁enfrentar 1
ear 1
▁laborales 1
▁Él 1
COM 1
/2006/ 1
▁detalle 1
▁adoptó 1
▁agresión 1
tuvieron 1
▁somet 1
▁manifestaciones 1
▁Reafirma 1
▁siguió 1
▁Chi 1
▁hubieran 1
▁2009. 1
▁director 1
pan 1
▁interacción 1
ux 1
▁amigo 1
▁archivos 1
▁frase 1
▁creer 1
▁Capítulo 1
▁escribir 1
▁subsidio 1
▁excesiva 1
▁detener 1
▁Armenia 1
▁Ghana 1
▁acogida 1
▁regímenes 1
▁1) 1
▁errores 1
▁monto 1
II 1
▁prioritario 1
▁juegos 1
▁preguntar 1
▁sustantiva 1
ifi 1
▁tú 1
tán 1
▁kilómetros 1
▁convierte 1
▁conceder 1
▁diga 1
▁Sch 1
▁designado 1
mal 1
▁comparte 1
▁modificaciones 1
▁preferencia 1
▁cuarta 1
▁ataca 1
▁basadas 1
gráfica 1
▁Bolivia 1
▁impide 1
▁Documento 1
▁Comisionada 1
▁alternativo 1
cepción 1
▁discursos 1
▁Energía 1
▁adquirida 1
▁apliquen 1
ístico 1
han 1
▁urbano 1
▁empleado 1
-4 1
▁saneamiento 1
▁OIEA 1
▁armonización 1
▁ido 1
▁adquirir 1
▁sencilla 1
▁llegue 1
▁recibe 1
▁Verde 1
▁posteriores 1
▁acredita 1
▁competitividad 1
lio 1
▁sólida 1
▁Agricultura 1
▁alerta 1
▁hicimos 1
▁Chad 1
osas 1
▁inscripción 1
bio 1
rimi 1
▁Superior 1
▁últimas 1
▁pensé 1
▁Salvador 1
▁altura 1
▁humanitarios 1
▁realizó 1
▁materna 1
▁plantear 1
▁ll 1
▁aumentando 1
▁reciba 1
▁tienes 1
▁difundir 1
▁pasos 1
▁existía 1
reci 1
▁margen 1
▁convencionales 1
▁invitación 1
▁tolerancia 1
ólogo 1
▁pan 1
▁Caja 1
▁comienza 1
▁facilite 1
▁tecnológica 1
▁municiones 1
▁libres 1
▁ACNUDH 1
▁continuo 1
▁periódica 1
▁anuncio 1
▁America 1
▁octavo 1
ak 1
06 1
▁ganado 1
▁Qui 1
▁Reconoce 1
▁Solo 1
▁Esperamos 1
▁peces 1
▁opone 1
▁Interna 1
▁enjuiciamiento 1
▁colaborar 1
▁flor 1
5.000 1
▁Uruguay 1
▁sanitario 1
▁concretamente 1
▁tecnológico 1
▁corriente 1
▁descarga 1
▁avanzado 1
▁tardar 1
▁avión 1
▁expuesto 1
▁posiciones 1
▁reside 1
▁Alienta 1
▁concluido 1
▁informativa 1
▁vigente 1
▁dinámica 1
▁riqueza 1
▁instalación 1
▁préstamos 1
▁mencionadas 1
▁adecuadamente 1
▁transnacional 1
▁prácticamente 1
▁déficit 1
▁enormes 1
versión 1
▁aclarar 1
▁ciudadano 1
shi 1
▁antiguo 1
log 1
contra 1
▁azul 1
▁mon 1
▁observador 1
ponga 1
▁doméstica 1
▁pertenecientes 1
▁secreto 1
▁liberalización 1
▁Orden 1
▁culturas 1
▁Dr 1
▁Objetivos 1
net 1
▁descubrir 1
▁Exp 1
▁tro 1
mil 1
▁temático 1
▁Pas 1
lico 1
▁atentado 1
uro 1
49 1
▁manifiesta 1
▁revista 1
▁millón 1
volución 1
arias 1
▁culpable 1
glo 1
tem 1
▁conserva 1
▁Doha 1
▁dia 1
▁tele 1
▁fácilmente 1
▁autonomía 1
▁movilidad 1
▁aplicarse 1
▁enumera 1
▁ministerios 1
▁Moldova 1
▁solucionar 1
▁Día 1
▁sorprend 1
▁quedado 1
mple 1
licit 1
▁buques 1
▁plazos 1
▁tome 1
fort 1
▁http 1
’ 1
▁propuso 1
▁arreglos 1
▁solicitantes 1
▁Q 1
▁finalizar 1
▁alojamiento 1
▁electricidad 1
▁apenas 1
▁jugar 1
▁prestan 1
▁asignar 1
▁basados 1
▁subrayar 1
▁uniforme 1
IM 1
▁comunica 1
▁presentaron 1
nova 1
▁patente 1
▁imaginar 1
▁planteamiento 1
▁quiera 1
▁normalmente 1
▁estadounidense 1
RO 1
▁lamentable 1
▁che 1
▁enviado 1
ani 1
▁ponen 1
▁art 1
▁dispuesta 1
▁maestros 1
▁FAO 1
▁prácticos 1
▁controversias 1
▁UNESCO 1
▁responde 1
▁resta 1
▁suelen 1
▁50% 1
▁científico 1
▁creados 1
▁legisla 1
▁complejidad 1
▁expulsión 1
▁gasta 1
▁apropiada 1
comp 1
▁avanza 1
▁Londres 1
▁casas 1
82 1
▁hija 1
▁alega 1
▁Eslovaquia 1
▁recomendar 1
▁Debería 1
▁cálculo 1
▁movilizar 1
▁charla 1
▁corte 1
▁vigilar 1
62 1
▁don 1
▁Tom 1
▁niña 1
▁ministerial 1
▁pensando 1
▁envío 1
stitui 1
▁retirada 1
▁regresar 1
▁amplias 1
▁2006-2007 1
▁(1999) 1
▁Constitucional 1
dina 1
▁Euro 1
▁Tecnología 1
▁adaptar 1
▁rige 1
▁recuperar 1
NA 1
▁vigentes 1
▁Tanzanía 1
▁encontrado 1
▁Ban 1
▁madres 1
▁Coordinador 1
▁pareja 1
▁sorprendente 1
▁imparcial 1
▁específico 1
▁Kazajstán 1
▁xenofobia 1
▁pensiones 1
dy 1
▁declarado 1
▁bilateral 1
▁distinción 1
▁utilidad 1
US 1
cí 1
mun 1
▁dirige 1
08 1
▁Integra 1
▁creencias 1
▁agrado 1
col 1
▁enfrentan 1
Puedo 1
▁verano 1
▁urbanas 1
▁oído 1
▁dispuestos 1
▁Culturales 1
▁Nam 1
▁registra 1
▁solar 1
▁cumple 1
▁Observando 1
▁defini 1
ction 1
▁obstaculiza 1
▁socorro 1
▁Principios 1
▁ilícitos 1
▁práctico 1
▁aniversario 1
▁receptor 1
▁escenario 1
gri 1
vesti 1
adores 1
▁listas 1
mia 1
▁abandona 1
▁Comisaria 1
▁biblioteca 1
▁diaria 1
▁Segundo 1
▁mezcla 1
▁cuadr 1
▁invitó 1
▁mantenido 1
▁extranjera 1
▁Malta 1
ight 1
▁foros 1
▁combinación 1
▁municipio 1
▁Resulta 1
▁armamentos 1
▁virus 1
▁expresaron 1
▁explicación 1
▁alternativa 1
▁etiqueta 1
▁ocupar 1
▁adquisiciones 1
▁discurso 1
▁almacenamiento 1
▁venido 1
▁Letonia 1
▁Albania 1
▁quieres 1
▁recepción 1
▁Partido 1
▁legítimo 1
▁aviones 1
▁fijado 1
▁concluye 1
▁John 1
▁exigencias 1
▁considerables 1
ham 1
▁registros 1
▁verdaderamente 1
▁inició 1
▁odio 1
tual 1
▁étnicas 1
▁apartamento 1
▁universo 1
▁libremente 1
ET 1
▁barrera 1
▁rela 1
▁consonancia 1
▁crítico 1
▁financiado 1
▁(2000) 1
▁Camerún 1
▁Nairobi 1
▁propietario 1
▁tuve 1
▁salvaguardias 1
▁postura 1
▁disco 1
▁ubicación 1
52 1
lip 1
▁preliminar 1
▁imagina 1
▁construye 1
▁esposa 1
▁concede 1
▁Mont 1
▁RE 1
▁aprovecha 1
▁serían 1
▁63 1
▁religiosa 1
▁Ben 1
▁satisfactoria 1
▁fraude 1
mita 1
▁dada 1
▁oral 1
▁blanqueo 1
▁ja 1
▁transforma 1
▁agradecer 1
▁traslado 1
▁retirar 1
▁participaron 1
▁preste 1
▁cubrir 1
▁expresamente 1
▁envía 1
▁constantemente 1
▁mundialización 1
▁parque 1
▁aumentó 1
▁aceptado 1
▁Bri 1
▁Col 1
MO 1
▁temor 1
▁colega 1
terna 1
▁hubiese 1
▁sentimiento 1
▁rom 1
▁dedicada 1
▁Trans 1
▁ensayos 1
▁beneficiarios 1
▁siento 1
▁agenda 1
▁equivoca 1
▁piensan 1
osos 1
è 1
ánico 1
▁medir 1
if 1
▁investigadores 1
▁invertir 1
▁madera 1
57 1
▁Mauricio 1
▁evidencia 1
▁instrucción 1
▁impulsar 1
▁acusados 1
▁gravedad 1
▁comentario 1
virt 1
▁mensajes 1
▁reconoció 1
▁corporal 1
▁dieron 1
▁ciudadanía 1
▁sangre 1
▁Necesitamos 1
▁profesores 1
▁Singapur 1
▁voluntarios 1
Original 1
▁Camp 1
▁terrible 1
▁disponga 1
tz 1
ulación 1
▁vea 1
▁definido 1
▁É 1
▁2004-2005 1
▁Luxemburgo 1
▁tipifica 1
▁Vol 1
eccion 1
▁desplazadas 1
▁generaciones 1
▁desmovilización 1
▁aparato 1
▁interino 1
▁lamenta 1
▁jugador 1
▁logrados 1
▁centrales 1
greso 1
▁exporta 1
ek 1
▁Recomendación 1
▁concertado 1
7/ 1
▁titulada 1
tenta 1
▁Cuenta 1
▁centrar 1
▁geo 1
▁Bruselas 1
▁Islandia 1
▁Subraya 1
▁dimensiones 1
▁abre 1
▁limpia 1
▁hecha 1
▁presunta 1
▁periodo 1
▁expectativas 1
LA 1
▁Fuerzas 1
UE 1
PI 1
▁desean 1
▁arquitectura 1
▁productividad 1
▁invoca 1
ciencia 1
▁banda 1
▁credibilidad 1
▁ninguno 1
▁organizó 1
▁actúa 1
▁externos 1
▁noveno 1
rc 1
▁pilar 1
▁Kyoto 1
▁constructivo 1
▁Decreto 1
ándole 1
▁cambiado 1
▁ejemplar 1
▁Habid 1
▁verbal 1
▁Za 1
▁inaceptable 1
▁detallado 1
▁necesariamente 1
▁proponer 1
▁» 1
▁facilitado 1
WG 1
▁maneja 1
▁derivados 1
▁crimen 1
▁comer 1
▁dudas 1
▁Qatar 1
▁sanciona 1
▁extremadamente 1
▁entró 1
▁tercero 1
▁cuáles 1
▁enseña 1
▁Liga 1
tieron 1
▁cohesión 1
▁empezó 1
▁parecía 1
▁protesta 1
▁incidentes 1
▁deposit 1
▁Uzbekistán 1
▁promueve 1
▁preservar 1
▁suministros 1
▁promueva 1
▁investiga 1
iese 1
lógico 1
▁significado 1
ducido 1
▁encomia 1
lli 1
▁detectar 1
▁Estonia 1
▁salvar 1
for 1
Bissau 1
▁sufragar 1
lares 1
▁piezas 1
▁especializada 1
iones 1
▁imperio 1
▁contraído 1
zu 1
▁cuán 1
by 1
▁Espacio 1
ónica 1
▁autónomos 1
▁interesado 1
▁socios 1
tive 1
SI 1
▁ratificar 1
▁tercio 1
▁radical 1
▁genética 1
▁obtiene 1
▁destacó 1
▁consideraciones 1
▁creando 1
párr 1
▁Nicaragua 1
▁PIB 1
▁subvenciones 1
▁mutuo 1
▁aérea 1
▁complementa 1
▁círculo 1
▁remuneración 1
▁contribuya 1
▁transporta 1
▁utilizada 1
▁existir 1
▁Modelo 1
▁13.00 1
pol 1
▁clasifica 1
▁2008-2009 1
▁expansión 1
▁poderes 1
▁alcanza 1
▁Varios 1
▁plat 1
▁renuncia 1
▁actualizada 1
▁planteado 1
véanse 1
▁religiones 1
▁vacantes 1
▁apoye 1
▁gal 1
▁Jurídicos 1
▁trabajado 1
▁estación 1
quí 1
▁sometida 1
▁págs 1
▁químicas 1
▁alcanzados 1
▁Ministerial 1
▁verse 1
▁sujetos 1
▁coordinada 1
3/ 1
Qu 1
▁subsidiarios 1
▁cerrado 1
▁clic 1
▁Podría 1
▁sólido 1
▁piloto 1
▁CON 1
▁actores 1
mpi 1
ö 1
▁comprobar 1
▁importación 1
▁Río 1
▁reúne 1
▁mejorado 1
▁barco 1
▁peticiones 1
▁buscando 1
▁Roja 1
▁Sociedad 1
▁embarazo 1
▁recuerdo 1
▁vídeo 1
▁reclutamiento 1
▁profesor 1
struct 1
▁titular 1
▁británico 1
▁silencio 1
▁apelación 1
▁debatir 1
tric 1
▁pacíficos 1
▁Quizá 1
▁cruza 1
▁estructurales 1
▁plantean 1
▁aleja 1
▁golpe 1
▁cuánto 1
ándolo 1
ndar 1
▁Reco 1
▁monta 1
▁Ciudad 1
▁piedra 1
▁extremo 1
tch 1
ENT 1
▁elimina 1
▁producen 1
ung 1
▁atmósfera 1
▁femenina 1
▁respectivas 1
▁recauda 1
▁sostiene 1
▁secciones 1
▁dedicar 1
▁nombrado 1
gina 1
har 1
▁universidades 1
▁útiles 1
▁Faso 1
▁Consulta 1
▁impulsa 1
▁aprueba 1
▁Dos 1
bal 1
▁destinada 1
▁temperatura 1
▁Ante 1
▁precedentes 1
▁romaníes 1
▁libera 1
▁Salón 1
iti 1
▁OSSI 1
▁sugiere 1
cula 1
▁Toda 1
▁relacionado 1
▁apoyado 1
rina 1
▁recibidas 1
▁convenio 1
▁impuestas 1
▁Cruz 1
▁negativas 1
▁Soy 1
▁constructiva 1
▁periodistas 1
▁conoce 1
peri 1
▁Plataforma 1
▁conducir 1
▁legislativa 1
▁Mujeres 1
▁claridad 1
▁asumido 1
▁ocasiona 1
▁conocida 1
cultural 1
▁eres 1
▁ocurrió 1
▁fracaso 1
▁masiva 1
▁deseen 1
uar 1
▁ordenamiento 1
▁Unidad 1
▁religiosos 1
SO 1
▁flujo 1
▁muro 1
▁75 1
▁aquellas 1
TO 1
Me 1
▁CD 1
IG 1
▁Tre 1
ificó 1
▁propósitos 1
▁orgánica 1
▁sugirió 1
▁cometidas 1
▁afrontar 1
▁premio 1
▁consagra 1
▁hago 1
CH 1
▁bienvenida 1
▁opina 1
▁división 1
▁socio 1
cy 1
▁Defensor 1
▁impresión 1
▁limitación 1
2005 1
▁positivas 1
▁supera 1
▁Yugoslava 1
▁Habie 1
▁detrás 1
▁nave 1
venga 1
pet 1
▁elegidos 1
ik 1
▁fomenta 1
CRC 1
▁Dicha 1
** 1
▁encuentro 1
vivi 1
ich 1
▁Primero 1
▁conscientes 1
▁Gal 1
▁Unida 1
ft 1
▁Sé 1
▁Th 1
▁Finalmente 1
▁epidemia 1
▁ayude 1
▁comparti 1
▁Imp 1
▁viendo 1
▁repatriación 1
▁cierre 1
▁combate 1
▁aumente 1
▁Panamá 1
▁terrorista 1
▁ADN 1
▁décadas 1
▁suspensión 1
▁oradora 1
▁depósito 1
Los 1
▁explosivos 1
▁subregional 1
▁1989 1
sistir 1
▁probar 1
▁antecedentes 1
▁oportuno 1
▁probabilidad 1
▁consideramos 1
▁experto 1
▁persistente 1
▁informaciones 1
▁Zambia 1
▁océanos 1
▁paciente 1
▁hospitales 1
▁Google 1
▁objeciones 1
▁Sexta 1
▁Había 1
▁sufren 1
▁centrado 1
%) 1
▁socava 1
▁reconocidos 1
▁proporcionada 1
▁resistencia 1
▁publicó 1
▁vacaciones 1
▁ahorro 1
▁industriales 1
▁establecen 1
cogiendo 1
▁retorno 1
▁Estaba 1
▁culpa 1
▁Posteriormente 1
▁parlamentario 1
▁reemplaza 1
▁transfronterizo 1
▁acreedores 1
iana 1
▁consultiva 1
▁convino 1
▁ocuparse 1
▁extranjeras 1
▁inspección 1
▁Yemen 1
▁carne 1
▁obligatorio 1
TI 1
▁adoptando 1
▁inventario 1
▁Cri 1
▁finanzas 1
ige 1
▁Emp 1
plaza 1
▁alquiler 1
▁diseñar 1
iéramos 1
▁véase 1
▁tren 1
▁bruto 1
▁universidad 1
▁obligados 1
▁transformación 1
▁Investigaciones 1
▁Jamaica 1
▁escuchado 1
▁complica 1
lecomunicaciones 1
▁Igualdad 1
▁inmunidad 1
pone 1
▁académico 1
▁perfil 1
▁costes 1
▁utilizarse 1
▁gases 1
▁cura 1
▁(2003) 1
▁Debido 1
▁débil 1
▁usan 1
2006 1
▁corresponden 1
▁dará 1
▁provincias 1
6/ 1
▁recomendado 1
▁Guía 1
▁Gra 1
▁fiable 1
▁Reitera 1
▁publicidad 1
▁gráfico 1
▁prepara 1
▁feliz 1
▁migratorios 1
▁cumplen 1
▁Pese 1
▁policial 1
▁Lista 1
▁generalmente 1
▁campamentos 1
▁estricta 1
▁litoral 1
ACIÓN 1
▁requerir 1
▁asisten 1
▁presos 1
▁voluntario 1
▁estancia 1
▁DEL 1
▁emprender 1
▁agrupa 1
MP 1
▁compensa 1
▁obligado 1
▁previas 1
▁apropiados 1
▁extraño 1
▁rapidez 1
▁Bra 1
▁veo 1
▁traducción 1
▁cero 1
▁Madrid 1
▁asiento 1
▁disponen 1
▁revolución 1
▁Consolidación 1
▁accesible 1
▁ventaja 1
▁Malí 1
▁compañero 1
▁vuelva 1
▁orientado 1
▁cumpli 1
▁Burkina 1
▁intervenir 1
▁encarcela 1
▁Che 1
▁Observación 1
▁10% 1
▁Gi 1
burg 1
fico 1
▁delante 1
▁65 1
▁Centroafricana 1
▁aportaciones 1
▁adquirido 1
▁refieren 1
▁afectar 1
▁relaciona 1
▁intercambiar 1
▁ayer 1
▁piel 1
▁traslad 1
▁supervivencia 1
▁Participa 1
▁20% 1
zona 1
▁irre 1
▁exteriores 1
▁2015 1
ificar 1
▁Chris 1
▁Evaluación 1
▁máquinas 1
▁animal 1
▁Law 1
▁trataba 1
▁Nosotros 1
▁Zimbabwe 1
▁viejo 1
▁tradición 1
▁55/2 1
▁reglamentación 1
▁Dicho 1
▁negativos 1
▁situada 1
▁mensual 1
▁permitiría 1
▁examinará 1
▁felicita 1
▁abandonar 1
▁compuesto 1
▁escasa 1
▁Oficial 1
uri 1
▁1373 1
▁indirecta 1
▁inciso 1
PL 1
▁vínculo 1
▁indebido 1
▁Transición 1
▁imposición 1
▁reacción 1
▁mover 1
▁ecosistemas 1
▁océano 1
▁brecha 1
and 1
▁inclusive 1
▁incumbe 1
▁cesación 1
▁Fra 1
▁llevando 1
▁marina 1
▁Puerto 1
/2007/ 1
▁asocia 1
▁And 1
OL 1
▁pared 1
▁Independiente 1
▁peligrosos 1
▁operativo 1
▁Washington 1
▁gratuito 1
▁viernes 1
▁recién 1
@ 1
▁provisionales 1
▁iniciales 1
▁ejerce 1
ku 1
pto 1
▁permitió 1
▁equidad 1
▁siguiera 1
▁Hoteles 1
▁cercano 1
▁constitución 1
▁escolares 1
▁viva 1
▁llegada 1
▁2002-2003 1
▁Agencia 1
▁Control 1
▁declarar 1
▁Benin 1
▁Lucha 1
▁identifica 1
▁cielo 1
RES 1
▁Ven 1
▁fuese 1
▁liberación 1
▁desigualdad 1
▁estarán 1
ther 1
▁Nivel 1
▁marítimo 1
▁tropas 1
▁sensible 1
▁(2006) 1
▁parlamentaria 1
▁Registro 1
▁apunta 1
▁Haya 1
▁encontraba 1
▁(2005) 1
▁escrita 1
mí 1
▁Liechtenstein 1
ure 1
ática 1
▁incentivos 1
▁150 1
▁aplique 1
▁Celebra 1
▁discriminatoria 1
LE 1
▁regulación 1
▁embarazada 1
▁proseguir 1
▁gira 1
▁pasada 1
▁ética 1
▁servidor 1
▁residuos 1
▁cancela 1
▁privación 1
▁duro 1
▁participó 1
▁formulario 1
▁contribuirá 1
▁1.000 1
venta 1
▁presentarse 1
▁Directora 1
poli 1
▁18.00 1
ONU 1
▁alianzas 1
IL 1
▁aporte 1
▁juvenil 1
▁Cambio 1
figura 1
▁coordinado 1
▁considerando 1
▁desertificación 1
▁ilustra 1
▁protegido 1
▁propicia 1
▁describir 1
▁enseñar 1
▁ricos 1
▁Fuente 1
▁degradantes 1
▁jurisprudencia 1
▁matemática 1
▁Durban 1
▁1980 1
▁viajar 1
cito 1
▁juventud 1
▁contenidas 1
▁Formas 1
▁determinada 1
▁procesamiento 1
▁actualización 1
sent 1
▁Indígenas 1
▁avanzada 1
▁destacado 1
▁antiguos 1
▁diplomático 1
▁sostenido 1
▁sensación 1
▁elabora 1
▁cumpla 1
▁núcleo 1
▁sequía 1
Si 1
▁creada 1
▁empecé 1
▁tomen 1
éis 1
▁facultades 1
CONF 1
▁desarrollando 1
▁apoyando 1
▁evoluciona 1
▁denominado 1
▁contienen 1
IF 1
▁asegurarse 1
▁ponerse 1
▁Dominicana 1
▁estadísticos 1
▁comenzado 1
▁secuestro 1
dujeron 1
▁divulgación 1
▁encaminados 1
▁perjudicial 1
▁recibieron 1
▁subrayó 1
▁presten 1
▁gar 1
▁permanecer 1
▁hechas 1
▁obstáculo 1
▁facultad 1
▁Mc 1
▁memorando 1
▁expediente 1
ducción 1
▁dispositivo 1
▁magnitud 1
▁perjudica 1
▁distribuido 1
▁olvidar 1
▁capitales 1
▁reclama 1
▁vehículo 1
▁Casa 1
▁respaldo 1
▁décimo 1
▁with 1
▁64 1
▁Siempre 1
▁delincuentes 1
▁africana 1
DP 1
▁Están 1
▁observado 1
▁Monterrey 1
▁asesina 1
king 1
cara 1
▁presunto 1
▁lunes 1
▁cárcel 1
▁goce 1
▁módulo 1
▁escasez 1
▁asciende 1
▁regresa 1
▁Tenía 1
▁neuro 1
▁iraquíes 1
▁dispositivos 1
▁ubica 1
▁consideren 1
▁Barcelona 1
▁incidencia 1
pel 1
▁piso 1
▁poseedores 1
dez 1
▁potable 1
▁subtema 1
▁departamento 1
▁Ku 1
▁ajustar 1
▁sencillo 1
▁considero 1
cuerda 1
▁banco 1
▁Estupefacientes 1
▁energético 1
▁lógica 1
▁tira 1
▁necesitaba 1
▁perfectamente 1
▁ministros 1
▁testimonio 1
▁asegure 1
▁Provisional 1
▁cónyuge 1
▁solicite 1
▁Final 1
▁líder 1
▁retira 1
2.000 1
▁perfeccion 1
Estados 1
▁mejorando 1
▁resumida 1
cabeza 1
▁iguales 1
marca 1
CD 1
▁sugerencias 1
▁Namibia 1
▁promoviendo 1
▁disfruta 1
cierto 1
▁generado 1
▁accidentes 1
ate 1
▁socioeconómico 1
▁resultantes 1
ducto 1
▁realista 1
▁mutuamente 1
▁iglesia 1
▁posesión 1
FOR 1
▁habita 1
▁TV 1
▁Vo 1
▁brillante 1
▁prosperidad 1
▁pornografía 1
▁crece 1
▁secreta 1
▁pens 1
▁maternidad 1
▁afirmó 1
moni 1
▁acabar 1
▁admisibilidad 1
ture 1
▁VII 1
▁docente 1
▁cuidados 1
▁Jamahiriya 1
▁estábamos 1
▁interesada 1
▁gestionar 1
poner 1
▁chica 1
▁Documentación 1
▁inhumanos 1
▁progresiva 1
▁vuelto 1
▁decisivo 1
▁valioso 1
▁plaza 1
▁controversia 1
▁Delincuencia 1
▁orgullo 1
▁Paul 1
▁suscita 1
▁autorizada 1
▁funcione 1
▁contabilidad 1
▁Marte 1
▁consumidor 1
▁proporcionan 1
lau 1
▁almacena 1
▁señales 1
▁llamamos 1
EM 1
▁deudor 1
.4/ 1
▁reunió 1
▁desearía 1
▁penitenciario 1
▁árboles 1
▁informático 1
▁sospechoso 1
▁valiosa 1
▁report 1
▁decreto 1
▁agencias 1
▁EL 1
▁oficialmente 1
▁OMS 1
▁forzada 1
▁vota 1
▁propiedades 1
▁prohibido 1
▁Honduras 1
▁equitativo 1
▁Public 1
▁Considera 1
▁celebre 1
▁empeño 1
gun 1
▁mini 1
▁definitivo 1
▁sentado 1
▁crueles 1
spir 1
tiene 1
▁Normas 1
lón 1
▁acreedor 1
▁mutua 1
▁MONUC 1
▁diamantes 1
▁fábrica 1
▁parlamento 1
▁órdenes 1
▁sindicatos 1
▁vender 1
▁belleza 1
▁orientaciones 1
▁lanzamiento 1
▁condiciona 1
▁fiscalización 1
▁directivo 1
▁óptima 1
▁corregir 1
▁incluía 1
ling 1
▁Observaciones 1
NI 1
▁hablamos 1
▁estudiando 1
DH 1
▁extensión 1
▁prohibir 1
▁EN 1
▁aspira 1
▁sueldos 1
CR 1
/10 1
▁especialistas 1
▁esclavitud 1
▁café 1
▁modificado 1
▁experimental 1
Di 1
▁productivo 1
▁estadística 1
▁justificar 1
▁(2002) 1
▁consultivo 1
▁ingeniería 1
▁estrictamente 1
▁cerrar 1
▁inspeccion 1
▁negociar 1
cular 1
▁agradecería 1
▁estricto 1
▁curs 1
“ 1
▁cometer 1
mero 1
▁talleres 1
▁SE 1
▁siguiendo 1
▁legitimidad 1
▁oculta 1
▁Deseo 1
▁unilateral 1
▁situ 1
▁pesquera 1
▁reclusos 1
▁tejido 1
▁pensaba 1
▁exclusiva 1
▁compro 1
▁Tayikistán 1
ité 1
stituye 1
▁1988 1
▁preparando 1
▁World 1
▁paisaje 1
▁absoluta 1
iller 1
▁enunciados 1
▁fiduciario 1
▁restablecer 1
▁genial 1
▁inevitable 1
▁tarifa 1
▁Kar 1
▁manifestar 1
▁indemniza 1
/64/ 1
▁complementario 1
▁recordó 1
▁deterioro 1
FR 1
▁visado 1
▁Fer 1
▁fórmula 1
▁psicológica 1
▁cultiva 1
izo 1
▁actitudes 1
▁pelo 1
▁Federativa 1
▁invasión 1
▁mostrado 1
▁teníamos 1
▁Consultivo 1
▁mono 1
▁Regla 1
▁diagnóstico 1
▁proyecta 1
▁septentrional 1
▁decisiva 1
▁Respect 1
▁municipales 1
ish 1
▁Libertad 1
▁reiterar 1
▁convocar 1
▁ventana 1
goberna 1
▁Fiscalía 1
▁Mozambique 1
▁constituía 1
▁lujo 1
izaciones 1
-5 1
▁Índice 1
▁transformar 1
/2008/ 1
▁Sáhara 1
▁bancaria 1
▁Nunca 1
▁80% 1
▁mediados 1
▁sustituir 1
▁usado 1
Ã 1
▁UNMIK 1
▁respaldar 1
▁autoriza 1
rey 1
▁directores 1
▁personalidad 1
▁bloque 1
▁incorporado 1
▁Preparatorio 1
▁ecológica 1
ende 1
▁altamente 1
▁Tur 1
▁accidente 1
▁formularon 1
▁maravilloso 1
▁virtual 1
▁productiva 1
▁basta 1
▁estimula 1
Í 1
▁Inspección 1
▁francesa 1
▁incompatible 1
▁privilegio 1
▁vivía 1
▁procurar 1
▁iraquí 1
▁400 1
▁Cualquier 1
▁excepciones 1
ambi 1
▁catástrofe 1
▁Guerra 1
▁disparidad 1
▁suele 1
▁continuará 1
▁presupuestaria 1
IDA 1
▁plantilla 1
▁acordó 1
ME 1
▁tradiciones 1
▁instó 1
WP 1
▁poca 1
▁afectado 1
▁importaciones 1
▁acusa 1
▁Existe 1
▁distribuye 1
▁cuantía 1
▁multa 1
▁preparatorio 1
▁Planificación 1
▁concienciación 1
▁automóvil 1
▁construido 1
Mi 1
▁centrarse 1
▁Sub 1
▁respeten 1
Com 1
▁protegida 1
▁respira 1
centr 1
vía 1
ib 1
С 1
▁Habitaciones 1
▁Mejor 1
▁diría 1
▁introducido 1
▁podremos 1
▁mitigar 1
▁morir 1
gráfico 1
▁PRO 1
▁Tri 1
▁añadido 1
▁exhaustiva 1
▁pasajeros 1
▁irregular 1
▁reduce 1
▁policiales 1
▁inestabilidad 1
▁inseguridad 1
▁propicio 1
▁conservar 1
▁vienen 1
▁reviste 1
▁funcional 1
▁hablado 1
▁cuestiona 1
▁Cal 1
▁generalizada 1
▁Montreal 1
▁jueves 1
▁hermoso 1
▁porteador 1
▁Auditores 1
ence 1
▁recopilación 1
▁protege 1
▁viaja 1
▁acordar 1
▁Natural 1
▁fundamenta 1
▁puente 1
▁anfitrión 1
▁dictamen 1
▁ejecuciones 1
▁estupefacientes 1
о 1
▁brazo 1
ive 1
▁placer 1
▁contamina 1
▁automáticamente 1
▁otorgar 1
▁separada 1
▁perfecto 1
▁remitir 1
▁implanta 1
▁dificultad 1
▁decidida 1
OC 1
DO 1
▁quedó 1
▁detección 1
▁Mediterráneo 1
▁emprendido 1
▁invernadero 1
▁produjo 1
▁Existen 1
▁étnica 1
▁armonizar 1
▁señalaron 1
▁urbana 1
▁degradación 1
▁museo 1
▁asesores 1
activ 1
▁literalmente 1
▁incertidumbre 1
tendiendo 1
212) 1
▁dispara 1
▁30% 1
▁manipula 1
▁Paraguay 1
▁poderoso 1
▁efectuado 1
▁mantienen 1
▁imagin 1
▁nombrar 1
▁CNUDMI 1
▁cotidiana 1
▁refugio 1
▁963- 1
▁Armas 1
▁preserva 1
▁sentar 1
▁titulares 1
zz 1
▁resulte 1
▁Creemos 1
▁preocupante 1
.400 1
▁profundidad 1
▁bloqueo 1
& 1
▁verificar 1
EL 1
▁crecer 1
▁PYME 1
▁socioeconómica 1
▁administradora 1
▁celebraron 1
To 1
+ 1
▁Jurídica 1
▁hermosa 1
▁famoso 1
▁actualizado 1
▁inadmisible 1
▁marítima 1
▁resuelto 1
▁semejante 1
TRA 1
ducir 1
▁debilita 1
berg 1
ä 1
▁intensa 1
htm 1
▁incrementa 1
▁Alimentación 1
▁desayuno 1
▁eléctrica 1
▁puntual 1
▁forzoso 1
▁pensión 1
▁archivo 1
▁globales 1
▁arbitraje 1
▁tendremos 1
▁excepto 1
▁club 1
▁habilidades 1
▁Auditor 1
▁Emiratos 1
▁afuera 1
▁montón 1
▁complementar 1
▁conocí 1
ísima 1
0/ 1
▁esperaba 1
▁reembolso 1
▁convirtió 1
▁emplear 1
COP 1
▁Mongolia 1
▁discapacidades 1
▁Global 1
▁Sabemos 1
▁seriamente 1
▁contratista 1
▁Nu 1
▁conduce 1
▁excede 1
▁prever 1
▁llevará 1
▁solía 1
▁Lamentablemente 1
▁aeronave 1
▁navegación 1
▁” 1
▁Voy 1
▁gravemente 1
▁Bahrein 1
▁Escuela 1
▁sucedió 1
▁soporta 1
pie 1
PR 1
▁ayudará 1
▁auxiliar 1
▁entablar 1
▁piscina 1
▁misiles 1
icidad 1
▁envió 1
▁poniendo 1
▁móvil 1
▁explorar 1
▁Seguimiento 1
▁damos 1
▁Vamos 1
▁negar 1
▁artificial 1
▁Monetario 1
▁LOS 1
▁editor 1
▁asociado 1
▁clínica 1
▁continuidad 1
▁actúe 1
2009 1
.300 1
▁dotación 1
▁Djibouti 1
▁FMAM 1
▁saludable 1
▁flota 1
PT 1
▁cable 1
▁frustra 1
reestructuración 1
▁minera 1
▁ropa 1
▁73 1
▁unilaterales 1
▁nutri 1
▁mencionada 1
▁suprimir 1
▁aprendido 1
▁ubicado 1
▁agradable 1
▁enemigo 1
▁repercusión 1
mbe 1
tienda 1
▁naturalmente 1
anti 1
▁fijar 1
uelta 1
▁desplegado 1
▁recogida 1
▁lleno 1
▁discrimina 1
▁nutrición 1
▁afirmación 1
▁contractual 1
▁pintura 1
▁hielo 1
▁taller 1
▁cine 1
▁maestro 1
▁tuvimos 1
▁eventual 1
▁lecciones 1
▁evita 1
▁presupuest 1
▁coincide 1
▁Fiduciario 1
▁Mecanismo 1
▁Ribera 1
▁conmigo 1
▁mueve 1
▁electo 1
[ 1
▁recibida 1
▁costumbre 1
▁dominio 1
▁empeora 1
▁monetaria 1
▁objetiva 1
▁conversación 1
▁origina 1
▁disminuye 1
▁supervisa 1
▁Fiscalización 1
▁bosque 1
▁dólar 1
▁conocen 1
▁musulmanes 1
▁Nuevo 1
▁Somos 1
▁obligada 1
▁implementa 1
▁circula 1
▁pobre 1
▁bacteria 1
▁discapacitados 1
▁Decisión 1
▁edición 1
dal 1
▁distinto 1
▁alentador 1
▁encontrará 1
▁talibanes 1
▁vacío 1
▁evalu 1
▁doy 1
▁ronda 1
▁patrocinado 1
▁bienal 1
▁dieta 1
▁colores 1
▁vela 1
▁doctor 1
.600 1
▁doce 1
mail 1
▁vigila 1
▁forestal 1
▁Proceso 1
▁Consciente 1
▁Ésta 1
▁móviles 1
▁mantenerse 1
▁rendir 1
▁canales 1
▁registrar 1
▁actualizar 1
▁transfronteriza 1
▁oralmente 1
▁noticia 1
güe 1
vision 1
▁Madagascar 1
▁panorama 1
▁importe 1
▁infracciones 1
▁censo 1
▁empleadores 1
▁coordinadores 1
▁Financiero 1
▁listo 1
▁concentración 1
▁atraer 1
▁secc 1
ney 1
▁precisión 1
▁Transporte 1
▁Muy 1
▁exploración 1
▁Cuarta 1
▁reflejar 1
▁rojo 1
▁enjuicia 1
▁facilitación 1
▁Ejército 1
▁auténtica 1
▁patrones 1
▁llevada 1
▁beneficiarse 1
▁relaja 1
NEPAD 1
▁lesiones 1
▁calor 1
▁pronta 1
▁Organizada 1
▁pagado 1
▁municipal 1
▁electorales 1
front 1
▁adjunto 1
▁umbral 1
▁Abu 1
▁cuándo 1
▁Plaza 1
▁Ze 1
posiciones 1
▁estructural 1
▁planteadas 1
▁reducida 1
▁compartido 1
2010 1
▁Cabo 1
▁aportación 1
▁imputa 1
▁sujeto 1
▁transmite 1
▁internet 1
▁ordenador 1
president 1
▁minuto 1
▁Copenhague 1
▁alivio 1
▁infecta 1
kh 1
uela 1
▁preguntó 1
▁sinergia 1
▁wi 1
▁alegaciones 1
pusiera 1
▁adjunta 1
▁resultó 1
▁basándose 1
▁orientar 1
▁aplicará 1
▁correctamente 1
/9 1
▁pendiente 1
▁reacciona 1
▁validez 1
▁ganancias 1
▁confidencial 1
▁usamos 1
▁originales 1
▁perpetrado 1
▁recicla 1
▁visible 1
▁basarse 1
patria 1
▁comprador 1
IR 1
▁neutral 1
▁habiendo 1
▁ocupante 1
▁acusaciones 1
▁intentando 1
▁obviamente 1
▁preámbulo 1
▁rechazo 1
▁facilidad 1
▁respondió 1
▁emisión 1
▁distinta 1
▁disminuir 1
▁hermana 1
▁jurídicamente 1
▁agradece 1
▁falla 1
▁deseamos 1
▁Personas 1
▁tragedia 1
▁símbolo 1
▁Aún 1
▁aborto 1
▁Casi 1
▁Spa 1
▁instalar 1
▁antipersonal 1
▁heridos 1
rito 1
▁triste 1
▁consideraba 1
▁liberal 1
decisión 1
▁permanece 1
▁desgracia 1
▁Atómica 1
▁háb 1
▁complicado 1
.800 1
▁malo 1
▁desplaza 1
▁impresionante 1
▁alianza 1
▁mío 1
tente 1
▁lanzar 1
▁Situación 1
▁droga 1
▁parti 1
▁United 1
▁prórroga 1
▁ofrecido 1
▁emitido 1
▁USD 1
ding 1
▁1967 1
▁pista 1
ç 1
▁Johannesburgo 1
▁macroeconómica 1
▁transcurrido 1
HRC 1
▁neto 1
▁40% 1
▁observancia 1
mental 1
▁enfrentamiento 1
CIA 1
▁desigualdades 1
▁secundario 1
▁TNP 1
▁Kong 1
▁venir 1
▁ruido 1
▁sustenta 1
▁abastecimiento 1
▁circun 1
▁maravillosa 1
▁matricul 1
▁Hong 1
▁cubierta 1
lement 1
▁miércoles 1
▁insiste 1
cualesquiera 1
▁indígena 1
▁saca 1
▁administrar 1
▁olvida 1
▁empezamos 1
▁Parece 1
▁restantes 1
▁daña 1
▁descubrimiento 1
▁forzado 1
Quién 1
III 1
▁Público 1
▁clausura 1
▁simultánea 1
▁reunido 1
▁caída 1
▁minoría 1
▁emocional 1
CRP 1
▁conciliación 1
▁mediación 1
▁vele 1
▁Resumen 1
▁derivadas 1
Esta 1
▁US 1
▁amparo 1
prime 1
▁ocurrir 1
▁preparada 1
▁Preocupa 1
▁refiero 1
▁Trata 1
/15 1
▁custodia 1
▁relevante 1
▁incluirá 1
▁constata 1
▁escena 1
▁necesite 1
▁jamás 1
▁Puesto 1
▁elegante 1
▁exposiciones 1
▁negativo 1
▁enfoca 1
▁mostrarles 1
▁negra 1
▁asequible 1
FCCC 1
▁rango 1
▁sujeción 1
▁forestales 1
▁aspiraciones 1
▁obtención 1
▁tenor 1
▁africano 1
▁propaga 1
▁$ 1
▁experimentado 1
CEDAW 1
▁equilibrada 1
▁proclama 1
▁hostilidades 1
▁certificación 1
▁iv 1
▁acogió 1
▁Militar 1
▁ultra 1
▁mitigación 1
▁afgano 1
▁volvió 1
▁interpretar 1
▁Financiera 1
▁Meridional 1
▁concluyó 1
▁estudiante 1
▁Vigilancia 1
▁auspicios 1
▁obtenida 1
▁secuencia 1
▁UNOPS 1
▁David 1
▁consultores 1
▁innovadoras 1
▁viento 1
▁compartida 1
▁vieron 1
scentralización 1
▁estimular 1
▁sustancia 1
▁Bel 1
▁identificado 1
EX 1
▁profundiza 1
▁Kha 1
▁previamente 1
▁preparatoria 1
▁estimación 1
logía 1
▁académica 1
▁directriz 1
▁conviene 1
▁retiro 1
▁obligar 1
▁Togo 1
▁aproxima 1
▁acuífero 1
.100 1
▁XX 1
▁repente 1
▁nace 1
▁defensor 1
▁Nadie 1
▁inflación 1
▁TIC 1
▁admitir 1
▁afecte 1
▁desempeñado 1
▁120 1
▁tomadas 1
▁coordinador 1
▁reconozca 1
▁Principales 1
▁tensiones 1
▁Marino 1
▁aviso 1
▁st 1
▁Elección 1
▁Queremos 1
▁elevar 1
▁clasificación 1
▁peligroso 1
lah 1
▁quinta 1
▁esencialmente 1
XV 1
▁sirio 1
▁ciertamente 1
▁requerido 1
▁surge 1
3.000 1
▁Comunicación 1
▁Tampoco 1
▁reflexión 1
▁Operación 1
▁viabilidad 1
igi 1
▁provocado 1
pondría 1
▁prorrogar 1
▁pierde 1
▁recopila 1
▁prestará 1
▁candidato 1
▁cuente 1
▁averiguar 1
2008 1
▁+ 1
▁alcohol 1
▁destruir 1
▁seguida 1
▁cobra 1
▁cola 1
ICEF 1
▁excesivo 1
▁vivimos 1
▁incaut 1
▁creatividad 1
sobre 1
▁equivale 1
▁elaborando 1
▁batalla 1
▁anunció 1
▁logística 1
▁ofrezca 1
▁Todavía 1
▁constituido 1
chu 1
▁enérgicamente 1
▁llevaron 1
▁perro 1
▁Consideramos 1
▁Mundo 1
ándola 1
▁Park 1
▁oír 1
tif 1
▁pidieron 1
▁seguimos 1
Cuándo 1
▁vendedor 1
▁compila 1
▁actualiza 1
▁individuo 1
▁Sírva 1
▁Estocolmo 1
▁patrón 1
▁despert 1
propia 1
▁contenida 1
▁sistemático 1
▁transferir 1
▁objeción 1
▁pasaporte 1
▁biológico 1
▁delegados 1
▁"¡ 1
▁especializado 1
▁ozono 1
▁impreso 1
▁comodidad 1
▁inicialmente 1
▁genes 1
▁propagación 1
▁She 1
▁manifestado 1
▁referirse 1
cier 1
▁percepción 1
▁trabajadoras 1
▁dificulta 1
▁inventa 1
▁Pregunta 1
▁desapariciones 1
▁solicitó 1
▁sospecha 1
▁Transnacional 1
▁innovadores 1
▁2011 1
▁reunirse 1
▁incidente 1
▁cautela 1
▁domicilio 1
▁asociadas 1
▁modifica 1
▁recluta 1
▁candidatura 1
▁equipada 1
▁imprescindible 1
▁universitario 1
▁renovación 1
▁conlleva 1
▁votantes 1
▁72 1
▁implementación 1
▁proporcionando 1
▁subregión 1
▁Productos 1
▁ascenso 1
▁parto 1
▁extraña 1
▁Windows 1
▁empezando 1
▁Comisiones 1
▁previsible 1
▁estrecho 1
▁prorrog 1
▁1986 1
view 1
▁poderosa 1
▁localidad 1
▁interroga 1
▁pedimos 1
ić 1
▁electro 1
▁90% 1
▁discusión 1
▁codifica 1
▁planea 1
clav 1
▁envejecimiento 1
▁informática 1
▁ejecutiva 1
sistió 1
presupuestarios 1
▁Industrial 1
▁cárceles 1
▁convierta 1
▁transacción 1
▁alemán 1
▁circunstancia 1
▁civilizaciones 1
▁dedicación 1
▁100% 1
▁medianas 1
▁veía 1
▁peores 1
▁acusación 1
▁Principal 1
▁preliminares 1
▁unanimidad 1
▁Alineados 1
▁gigante 1
▁favorecer 1
▁responda 1
▁borra 1
▁Report 1
▁oración 1
▁manteniendo 1
▁desaparece 1
▁rectores 1
▁colocar 1
▁gusto 1
▁acoso 1
▁falsa 1
▁acondicionado 1
▁oficioso 1
▁sufrir 1
▁desaparecido 1
▁estableciendo 1
▁singular 1
▁Organizaciones 1
▁becas 1
Sub 1
▁parcialmente 1
ortalecimiento 1
▁bancario 1
▁limpieza 1
▁Barbados 1
▁fruto 1
▁querido 1
▁padece 1
▁econom 1
▁Botswana 1
▁Género 1
▁adherirse 1
▁disminuido 1
▁Conforme 1
▁guardia 1
▁techo 1
▁cobrar 1
▁verifica 1
▁alfabetización 1
▁plástico 1
▁repetir 1
▁escond 1
poniendo 1
▁boca 1
▁interlocutores 1
,000 1
estructura 1
▁factura 1
▁proviene 1
▁Fiji 1
▁pacífico 1
▁corrección 1
▁Ud 1
dista 1
▁aptitudes 1
▁jardín 1
е 1
▁entrenamiento 1
▁prestó 1
▁mirando 1
▁conocemos 1
scripciones 1
▁defecto 1
▁colaboradores 1
▁blog 1
más 1
▁Comunicaciones 1
▁soporte 1
▁California 1
▁Climático 1
▁Empleo 1
▁calificado 1
▁consistente 1
▁salón 1
▁consultor 1
▁desequilibrio 1
▁Malawi 1
▁teatro 1
▁horario 1
▁espiritual 1
▁inaugura 1
▁pandemia 1
▁reinserción 1
▁OSCE 1
▁extender 1
▁balance 1
▁activista 1
▁aboga 1
▁desaparición 1
▁prisiones 1
▁interactivo 1
▁Trabaja 1
▁notificar 1
▁atrapa 1
estabiliza 1
▁OOPS 1
ffe 1
▁intimida 1
militar 1
▁proveedor 1
▁felicidad 1
▁fiesta 1
ibíd 1
▁Científico 1
▁aliviar 1
▁conmemora 1
▁FMI 1
▁Administrativo 1
▁lento 1
▁cena 1
▁Anti 1
▁Ultraterrestre 1
▁encontré 1
▁reducciones 1
▁amable 1
▁formule 1
▁configuración 1
▁trasladar 1
▁traducir 1
▁doméstico 1
▁prejuicio 1
▁Iglesia 1
▁proporcionó 1
▁influir 1
▁inscrito 1
scendencia 1
▁Éste 1
▁traer 1
▁confía 1
▁tramita 1
▁traza 1
▁pieza 1
▁encarar 1
▁Capacitación 1
▁Finanzas 1
▁estabilización 1
▁Frente 1
▁contaminantes 1
▁cuesta 1
▁perfecta 1
▁tramitación 1
▁encaminada 1
▁célula 1
▁insistir 1
Saben 1
▁Mauritania 1
▁molécula 1
▁genital 1
▁considerará 1
Puede 1
▁Directrices 1
▁Recomendaciones 1
▁musical 1
▁tabaco 1
▁UNITA 1
▁conectar 1
▁imparcialidad 1
▁competitiva 1
▁cometa 1
▁56/2 1
▁pedía 1
▁Doy 1
▁innovador 1
▁Atlántico 1
▁cerebral 1
▁viviendo 1
▁Empresa 1
▁marido 1
▁reanudar 1
▁autorizar 1
▁Balcanes 1
▁cambió 1
▁Tanto 1
▁sentía 1
▁controlado 1
Música 1
▁fronterizo 1
▁terraza 1
▁infección 1
▁sectoriales 1
▁cruce 1
▁turco 1
▁decidí 1
▁Grandes 1
▁procedente 1
▁modern 1
trop 1
▁equilibrado 1
▁aceite 1
▁Dentro 1
ística 1
ão 1
▁multiplica 1
▁prohibida 1
▁confisca 1
▁explora 1
▁hídricos 1
▁inalienable 1
▁trámite 1
и 1
▁conexiones 1
▁estrés 1
▁José 1
▁franco 1
▁actuando 1
▁armonía 1
▁Consenso 1
▁compasión 1
▁albergue 1
▁discriminatorio 1
▁simula 1
▁à 1
▁declarada 1
▁Asentamientos 1
▁arbitral 1
▁designar 1
▁bolsa 1
CIÓN 1
▁redacta 1
▁auténtico 1
▁descubierto 1
▁desplegar 1
▁válida 1
▁ejecutado 1
stitucion 1
▁coloniales 1
▁concilia 1
▁testigo 1
▁química 1
▁violenta 1
▁Pienso 1
▁blanca 1
▁inherente 1
▁parecido 1
▁elabore 1
▁criatura 1
▁obedece 1
▁golpea 1
▁fundada 1
▁martes 1
▁empezado 1
▁estereotipos 1
▁intersectorial 1
▁lluvia 1
▁violentos 1
▁sobrevivir 1
▁caliente 1
▁redactar 1
▁fila 1
▁pura 1
▁gestiones 1
eciendo 1
▁infracción 1
▁ambicioso 1
▁manejo 1
▁acorde 1
▁` 1
▁literal 1
▁versiones 1
▁árbol 1
▁hidro 1
▁comprendida 1
▁pudieron 1
▁expres 1
credit 1
▁dinámico 1
▁excluir 1
▁Espacial 1
▁Auto 1
▁pierna 1
▁decenas 1
▁tensión 1
▁manifestó 1
▁proveniente 1
▁reiteró 1
▁subsistencia 1
▁telefónica 1
▁variable 1
▁70% 1
ident 1
▁tutor 1
▁Tercer 1
▁Níger 1
▁instituto 1
▁lingüística 1
▁satisfecho 1
▁soberano 1
▁referido 1
▁colonial 1
▁detecta 1
▁logístico 1
▁Libro 1
▁digna 1
.900 1
Observador 1
▁contenía 1
▁homenaje 1
▁rebeldes 1
а 1
▁perturba 1
▁carbón 1
▁niega 1
▁1982 1
▁concentrar 1
▁gestiona 1
▁italiano 1
▁Electoral 1
▁preparó 1
▁was 1
▁jornada 1
# 1
▁judío 1
▁Club 1
▁desglosados 1
▁Poli 1
▁trabajador 1
gura 1
▁reconociendo 1
▁restricción 1
▁refería 1
▁ocupe 1
▁pensado 1
▁ratifica 1
▁satisfactorio 1
▁compensación 1
▁Franja 1
▁vieja 1
▁paralela 1
▁critica 1
▁beneficiar 1
▁Africano 1
▁2020 1
▁Basilea 1
▁recíproca 1
▁precedente 1
▁campamento 1
▁bloquea 1
▁malaria 1
▁lucro 1
▁Rights 1
▁1949 1
▁explícitamente 1
▁consagrados 1
▁aceptada 1
párrafo 1
▁doctrina 1
▁refuerza 1
▁milenio 1
▁emigr 1
▁combatientes 1
▁elaboró 1
▁cosecha 1
▁consigue 1
▁refugiado 1
▁creía 1
▁Utilización 1
▁informal 1
▁armoniza 1
▁legalidad 1
▁apéndice 1
▁privacidad 1
▁Nations 1
▁tangible 1
▁liberar 1
▁constituida 1
▁habilita 1
▁fal 1
▁guarde 1
▁aprende 1
▁recae 1
à 1
▁cercana 1
▁excluye 1
▁intensifique 1
▁George 1
▁obvio 1
▁autónoma 1
▁explicó 1
restablecimiento 1
▁religioso 1
▁1987 1
▁talento 1
▁Bush 1
▁Trinidad 1
▁convicción 1
▁Permítanme 1
▁espectacular 1
▁incapacidad 1
▁Formación 1
▁racista 1
▁signo 1
▁auditor 1
▁sirva 1
▁visitantes 1
▁helicóptero 1
▁novedades 1
▁recomendada 1
▁empresarios 1
▁caza 1
▁adelanta 1
Bueno 1
▁afronta 1
▁temporada 1
LO 1
/1999/ 1
▁fax 1
▁Presentación 1
▁mutilación 1
▁tuberculosis 1
▁nervio 1
▁plural 1
▁borde 1
▁subir 1
▁lanzado 1
É 1
▁Bolivarian 1
▁Secretaria 1
▁ecológico 1
▁Seminario 1
▁arresto 1
▁61/2 1
▁rostro 1
▁justificación 1
1998 1
▁DERECHO 1
▁Mónaco 1
▁trimestre 1
▁Tareas 1
óxido 1
▁presiones 1
▁definiciones 1
▁creativa 1
▁Kirguistán 1
▁exhaustivo 1
▁Reserva 1
▁monitor 1
▁atractivo 1
▁Cuarto 1
▁arroja 1
▁reorganiza 1
▁dispositiva 1
▁huérfanos 1
▁sudoriental 1
▁pesquero 1
▁from 1
▁modificada 1
▁Junto 1
▁creativo 1
disciplina 1
▁Premio 1
▁cuidadosamente 1
script 1
▁característica 1
▁tolera 1
▁biodiversidad 1
▁frágil 1
▁islámico 1
▁terminó 1
▁benefici 1
▁admisión 1
▁coral 1
tendrá 1
4.000 1
▁Conclusiones 1
▁aislamiento 1
▁bombarde 1
▁continental 1
▁psicológico 1
▁Racismo 1
▁sindical 1
▁1985 1
▁vulnerable 1
▁OTAN 1
▁logró 1
▁(2008) 1
▁extrajudiciales 1
▁OCDE 1
▁ilumina 1
▁convencer 1
▁aviación 1
ándonos 1
▁escribió 1
▁60% 1
▁1970 1
▁59/2 1
▁sucedido 1
▁exceso 1
▁brutal 1
▁lagunas 1
▁contenga 1
▁válido 1
▁direcciones 1
▁heridas 1
▁25% 1
▁descolonización 1
▁siguieron 1
▁desprende 1
▁suspender 1
▁kilo 1
▁biología 1
cora 1
▁coordina 1
Video 1
▁Diálogo 1
▁conveniencia 1
▁XVII 1
▁Libre 1
▁arregl 1
▁compone 1
▁extraer 1
▁bicicleta 1
▁determinó 1
▁columna 1
▁culmina 1
▁dulce 1
▁Condición 1
▁modernización 1
▁pretend 1
▁robo 1
▁azúcar 1
▁hipótesis 1
▁Excmo 1
▁Mixto 1
▁serbios 1
▁rueda 1
▁nube 1
▁confirmó 1
▁emociones 1
▁deficiente 1
▁concedido 1
▁alentó 1
▁ancianos 1
ICA 1
▁inversores 1
▁divisiones 1
▁imperativo 1
INF 1
▁Martin 1
▁mantuvo 1
▁refleje 1
▁creciendo 1
▁extensa 1
▁fijo 1
dependientes 1
▁Guyana 1
▁Técnico 1
▁cerrada 1
▁menoscaba 1
▁Tabago 1
▁determine 1
▁discutir 1
▁cuidar 1
▁prohib 1
▁incluyó 1
▁enmendada 1
▁emitir 1
▁intenciones 1
▁relatores 1
▁Enviado 1
▁regalo 1
▁caracter 1
▁Gabón 1
▁redunda 1
▁agotado 1
▁aplazar 1
dministraciones 1
▁carencia 1
▁Bhután 1
▁algoritmo 1
▁higiene 1
▁folleto 1
▁concierne 1
▁resolv 1
CEDEAO 1
▁Corrupción 1
▁proteína 1
▁migratoria 1
▁capacitado 1
▁atribuciones 1
▁genético 1
work 1
▁Liberación 1
▁concerniente 1
▁secuestra 1
▁impugna 1
▁Trato 1
▁panel 1
▁National 1
▁prisioneros 1
▁referéndum 1
▁transcurso 1
▁amistad 1
▁firmó 1
▁abandono 1
▁piensen 1
▁recibí 1
▁devolver 1
verdad 1
▁reprimir 1
▁sentimos 1
▁digno 1
▁surgido 1
▁confiar 1
tendida 1
▁cubre 1
▁falsifica 1
▁adición 1
▁2012 1
▁ministerio 1
▁recompensa 1
▁ingeni 1
▁jubilación 1
6.000 1
▁Adelanto 1
▁OSACT 1
▁Turkmenistán 1
▁idéntica 1
▁famosa 1
▁57/2 1
▁paralelo 1
Ó 1
▁apoyó 1
▁cápita 1
▁inspectores 1
▁indique 1
▁cubano 1
▁haciéndo 1
® 1
▁estudie 1
▁fruta 1
▁proteja 1
▁Reforma 1
▁agujero 1
▁constituya 1
▁diligencia 1
▁Golán 1
▁severa 1
eira 1
▁prepare 1
▁Votos 1
▁llamo 1
▁Zona 1
▁recurre 1
▁prosiga 1
▁Villa 1
▁botón 1
▁XI 1
▁detenciones 1
▁comporta 1
н 1
▁fronteriza 1
▁pregunto 1
▁profesión 1
▁fichero 1
▁primavera 1
▁reanudación 1
▁ONUDD 1
▁demasiada 1
▁entendido 1
▁perpetua 1
place 1
▁indebida 1
▁Armadas 1
▁planificar 1
▁Maldivas 1
▁consuetudinario 1
▁conozca 1
▁ensayo 1
▁acepte 1
▁celular 1
▁sueldo 1
▁articula 1
ñi 1
▁UNIFEM 1
▁Woods 1
▁exclusivo 1
Qaida 1
▁intenso 1
▁Robert 1
▁necesitará 1
т 1
▁encontró 1
▁espectro 1
▁Ayuda 1
▁gratis 1
▁sugerencia 1
▁celda 1
▁alberga 1
▁partículas 1
▁reasentamiento 1
▁subyacente 1
▁varones 1
▁fracasa 1
ward 1
▁Reducción 1
▁operadores 1
▁mostró 1
▁convencida 1
▁Andorra 1
▁cumpliendo 1
▁divide 1
▁sincero 1
▁dictado 1
▁romper 1
▁Habla 1
▁divulga 1
▁Afirma 1
▁CEPA 1
▁exhib 1
▁punta 1
▁acced 1
▁Bahamas 1
▁desventaja 1
▁exitosa 1
▁permitiera 1
▁recinto 1
▁ingenieros 1
▁emergentes 1
▁ministro 1
▁paludismo 1
▁refirió 1
▁ingres 1
▁Señala 1
▁Varias 1
ógeno 1
stituyó 1
▁Número 1
▁circuito 1
▁terapia 1
▁prelación 1
proyecto 1
▁(2007) 1
▁Apelaciones 1
▁Gobernador 1
▁divertido 1
▁insuficiencia 1
▁prevalencia 1
♪ 1
pendiendo 1
▁Samoa 1
▁Administrador 1
▁Facebook 1
▁continuó 1
▁fabricantes 1
▁persiste 1
▁favorito 1
/2009/ 1
▁efectividad 1
▁maltrato 1
▁barato 1
▁donaciones 1
▁dictar 1
▁gradua 1
▁OSE 1
▁intimidación 1
▁argumenta 1
▁Antigua 1
▁menú 1
▁Islam 1
▁autónomo 1
▁comunicó 1
▁temporario 1
▁disponía 1
▁semillas 1
▁golf 1
▁demográfica 1
▁VIII 1
▁salió 1
áramos 1
▁colabor 1
▁Alimentos 1
▁cirugía 1
▁denegación 1
▁turístico 1
▁semestre 1
▁tabla 1
▁quedará 1
▁Industria 1
▁Juventud 1
▁Occidente 1
▁Técnica 1
▁fortaleciendo 1
▁obtuvo 1
▁referirme 1
▁milicias 1
▁Verificación 1
▁Objetivo 1
▁Igualmente 1
▁optimiza 1
▁reproducción 1
▁basura 1
▁hostil 1
▁contratante 1
▁aborde 1
▁adjudic 1
▁emplazamiento 1
▁sensibilizar 1
▁sostener 1
▁Museo 1
▁Mayor 1
▁agencia 1
▁dibujo 1
▁injerencia 1
▁fumadores 1
▁interfaz 1
▁persistencia 1
▁respete 1
▁terror 1
▁faculta 1
▁Inglaterra 1
▁Promover 1
▁designación 1
▁empoderamiento 1
▁frío 1
▁Recuerda 1
▁55/1 1
▁Ombudsman 1
▁atribuye 1
▁amiga 1
▁exacta 1
▁contribuyó 1
▁femenino 1
▁reafirmó 1
▁rigurosa 1
▁descanso 1
▁destinatario 1
▁permitía 1
▁aventura 1
▁Belice 1
▁Africa 1
▁Bretton 1
▁Cuestión 1
▁Suprema 1
▁confortable 1
▁interviene 1
▁excluido 1
Cuánto 1
▁Instancia 1
▁asume 1
▁Diversidad 1
▁colegio 1
▁inundaciones 1
▁Apelación 1
▁raíces 1
▁ultima 1
▁demográfico 1
▁Fecha 1
▁reanuda 1
▁felices 1
▁mencionó 1
▁Recientemente 1
▁sucediendo 1
▁Academia 1
▁intermedio 1
▁reseña 1
▁aprendí 1
▁pesado 1
▁injusticia 1
▁órbita 1
▁alojado 1
▁descenso 1
▁informativo 1
▁emocionante 1
ísimo 1
▁calentamiento 1
▁Instituciones 1
▁estigma 1
▁Encargado 1
▁Observadores 1
▁contaba 1
▁Socorro 1
▁intérprete 1
▁malnutrición 1
▁geográfico 1
convocadas 1
▁falso 1
▁desigual 1
▁ferrocarril 1
▁terremoto 1
▁abstenciones 1
▁Papua 1
▁Omán 1
▁atañe 1
▁mantendrá 1
▁convergencia 1
▁reconstruir 1
▁innovaciones 1
▁limpio 1
▁iraní 1
▁alemana 1
▁concertar 1
▁antelación 1
▁administradores 1
document 1
▁enmendar 1
▁conexo 1
Ú 1
▁pertinencia 1
▁misterio 1
▁destruye 1
▁comparable 1
▁acontecimiento 1
▁surgir 1
▁dirigió 1
▁conceptual 1
▁France 1
▁hueso 1
▁china 1
Está 1
▁persecución 1
▁ingresar 1
▁mercurio 1
▁recibiendo 1
▁ofreciendo 1
▁reduciendo 1
▁voces 1
▁variante 1
▁tutela 1
▁linea 1
▁enviada 1
/54/ 1
▁facultativo 1
▁2010-2011 1
▁Ejecución 1
▁problemática 1
▁recogido 1
▁visitó 1
▁concertada 1
▁turno 1
comercialización 1
▁2000-2001 1
▁ayudó 1
▁pregunté 1
▁requerida 1
▁calificación 1
▁adherido 1
▁Microsoft 1
▁billones 1
▁coincidi 1
▁incorpore 1
▁Región 1
▁gesto 1
▁preescolar 1
▁tropical 1
Гі 1
▁reproduce 1
▁cuota 1
▁admisible 1
▁unánime 1
▁intensidad 1
▁invierno 1
▁Decisiones 1
Sudáfrica 1
▁recrea 1
iéndole 1
▁Turismo 1
▁vulnera 1
€ 1
▁agradezco 1
▁ceremonia 1
▁estancamiento 1
▁penetra 1
▁prefiere 1
▁subsahariana 1
▁ordinaria 1
▁renovado 1
▁aprovechamiento 1
▁estableciera 1
▁incitación 1
▁masivo 1
▁financiamiento 1
interdependencia 1
▁Descolonización 1
▁sorpresa 1
▁sostenida 1
▁reputación 1
wood 1
▁vertical 1
▁afro 1
▁acero 1
▁añade 1
▁estrella 1
▁Francisco 1
▁inscribir 1
▁potente 1
▁jubila 1
▁Análisis 1
▁Gubernamentales 1
▁murieron 1
▁murió 1
▁supuestamente 1
▁expira 1
▁instalado 1
Quiere 1
▁Amsterdam 1
▁flagrante 1
▁fútbol 1
▁galaxia 1
▁competitivo 1
▁concertación 1
▁expresiones 1
▁efectuada 1
▁Negocios 1
▁coalición 1
▁subsiguiente 1
▁reclusión 1
▁genoma 1
▁obtenga 1
▁tienden 1
PNUD 1
lógica 1
XXI 1
▁analítico 1
▁mercenarios 1
▁pertenencia 1
▁ejerza 1
▁Gui 1
▁habló 1
▁típico 1
▁pasivo 1
▁58/2 1
▁Democracia 1
▁Inversiones 1
▁flagelo 1
▁prestigio 1
▁prorrateo 1
▁Órgano 1
▁abruma 1
▁motivación 1
▁victoria 1
▁hábitat 1
▁refuerce 1
▁diseñada 1
▁curva 1
▁interrogatorio 1
▁aplaud 1
▁revoca 1
▁préstamo 1
▁Amnistía 1
▁canadiense 1
▁contemporánea 1
▁desfavorecidos 1
▁estímulo 1
▁reúna 1
▁exacto 1
▁devastador 1
▁gravado 1
▁Biológica 1
▁externo 1
▁Development 1
▁horrible 1
▁progenitor 1
▁Berlín 1
▁comencé 1
▁inmensa 1
▁bordo 1
▁desarrolle 1
▁sucesivo 1
▁batería 1
▁oscura 1
▁atribuir 1
▁(1998) 1
▁renovar 1
▁recupera 1
▁análoga 1
▁espectáculo 1
▁Linux 1
▁infecciones 1
▁disputa 1
▁XIX 1
Ley 1
▁Biblioteca 1
▁Lesotho 1
▁democratización 1
▁medición 1
▁esposo 1
▁revisa 1
5-0 1
> 1
▁pabellón 1
▁mantuvier 1
▁luces 1
▁Swazilandia 1
▁Taiwán 1
▁diversificación 1
▁kuwaití 1
▁alojarte 1
▁matrícula 1
▁refuerzo 1
▁tranquila 1
▁consolidado 1
▁asistieron 1
▁aislado 1
▁recabar 1
▁modalidad 1
▁Aspectos 1
▁embarca 1
▁colección 1
▁admira 1
▁consigo 1
▁Recomienda 1
▁autobús 1
▁complemento 1
© 1
▁énfasis 1
▁llamó 1
▁sensibilidad 1
▁bandera 1
▁valiente 1
▁suave 1
OPS 1
▁Bangkok 1
▁Distrito 1
▁Prohibición 1
▁contrarrestar 1
▁fantástico 1
▁produciendo 1
gún 1
▁investigador 1
▁numer 1
▁asegur 1
▁Booking 1
▁arquitecto 1
▁británica 1
▁liquidación 1
▁sabiduría 1
▁ánimo 1
▁neuronas 1
▁cristal 1
cogemos 1
▁Degradantes 1
▁remesas 1
▁Bienestar 1
▁crónica 1
▁deportivo 1
Dónde 1
▁Manual 1
▁Estratégico 1
▁síntomas 1
▁típica 1
▁plasma 1
▁Adición 1
▁destruido 1
8.000 1
▁Subcomité 1
▁Suriname 1
▁Simplemente 1
▁juguete 1
▁polvo 1
▁comprobado 1
▁juega 1
▁hablo 1
▁desempeñe 1
▁billete 1
▁estimó 1
▁desierto 1
▁Series 1
pdf 1
▁emprende 1
▁Contratante 1
▁abolición 1
▁desconocido 1
▁filosofía 1
▁muchísimo 1
▁prevalece 1
▁recorrido 1
▁alarmante 1
▁revolucion 1
▁dibuja 1
▁preveía 1
▁establecieron 1
▁automática 1
▁Océano 1
▁credenciales 1
▁litigio 1
▁Respuesta 1
▁requería 1
▁diputado 1
▁sentí 1
▁Tokelau 1
▁inquieta 1
▁that 1
▁selectiva 1
/2002 1
icultura 1
▁diapositiva 1
SIÓN 1
▁Bosques 1
▁ocurriendo 1
▁permítanme 1
▁centenar 1
▁receta 1
▁requiera 1
▁delicado 1
▁depositario 1
▁film 1
▁incondicional 1
▁mercantil 1
▁Bagdad 1
▁decidieron 1
▁colonia 1
▁Comercial 1
▁Judicial 1
▁Profesional 1
▁redujo 1
▁trauma 1
▁regulador 1
▁cooperativas 1
persona 1
▁enérgica 1
▁expedición 1
▁revitalización 1
с 1
▁moratoria 1
▁especula 1
▁mamá 1
▁Príncipe 1
▁ascendía 1
▁designada 1
▁sexta 1
▁vecino 1
▁Reglamentación 1
▁aparición 1
▁atentamente 1
▁reacciones 1
▁Pesca 1
▁adolescente 1
▁magistrado 1
▁fundador 1
▁Barbuda 1
▁distinguir 1
▁drástica 1
▁Página 1
▁reivindica 1
▁oscuro 1
-2004 1
▁Probablemente 1
▁Véanse 1
▁Ofrece 1
PRST 1
▁suscrito 1
▁invite 1
▁salarial 1
Informe 1
▁trágico 1
▁sitúa 1
▁muestre 1
▁revisiones 1
▁Irak 1
▁esquema 1
▁agotan 1
▁Resoluciones 1
▁pretexto 1
▁residual 1
▁Palacio 1
▁segmento 1
▁adversa 1
▁guiar 1
▁reparar 1
▁Móvil 1
▁Treaty 1
▁aconseja 1
▁cuartel 1
▁fortalezca 1
▁jurisdicciones 1
▁penitenciaria 1
▁precursores 1
▁abuelo 1
▁romaní 1
▁Crueles 1
▁errónea 1
▁longitud 1
▁monumento 1
▁griego 1
▁portátil 1
▁botella 1
▁artística 1
▁optimista 1
▁Cairo 1
▁Subprograma 1
▁estuve 1
▁esquina 1
¡ 1
▁ingrediente 1
▁cuantifica 1
▁elegida 1
▁densidad 1
▁periodista 1
emisor 1
▁participe 1
▁gratitud 1
▁pudiéramos 1
▁temprano 1
▁tsunami 1
▁apasiona 1
▁contrabando 1
sgraciadamente 1
▁vote 1
ô 1
▁Ambiental 1
▁divisas 1
▁intermediario 1
▁competir 1
▁elogia 1
ómetro 1
▁XII 1
▁Logística 1
▁reembolsa 1
▁Mercado 1
▁preventivo 1
▁exención 1
▁describ 1
▁imparte 1
▁delicada 1
▁satisface 1
▁Moscú 1
▁decepciona 1
▁sabido 1
▁dictada 1
▁norteamericano 1
▁patrocina 1
▁advertencia 1
▁certeza 1
▁restringir 1
▁remedio 1
▁Voluntarios 1
▁fósiles 1
▁oxígeno 1
▁predecir 1
▁somalí 1
▁ideología 1
▁espalda 1
▁alcalde 1
▁contraseña 1
XXVI 1
Demócrata 1
▁vigencia 1
▁alegría 1
▁Frank 1
▁camiones 1
▁leído 1
▁Haciend 1
▁horizontal 1
▁introducida 1
▁líquido 1
▁concebido 1
▁absorbe 1
▁decidimos 1
Nueva 1
▁acostumbra 1
▁homicidio 1
▁textil 1
▁Siguiendo 1
▁huelga 1
▁Obama 1
▁cruel 1
▁audio 1
.105/ 1
▁Economía 1
▁FNUAP 1
▁MANUD 1
▁diplomacia 1
▁jardines 1
▁Considero 1
▁equipado 1
▁centró 1
▁contraídas 1
▁alegra 1
incluido 1
▁envíe 1
▁recuerde 1
▁comience 1
▁radiación 1
▁aterriza 1
▁Ambos 1
▁FPNUL 1
▁Subsecretario 1
▁protagonista 1
▁registró 1
▁restrictiva 1
▁Conjunto 1
▁Estructura 1
▁comprometida 1
▁correspondía 1
▁termine 1
▁invisible 1
▁otoño 1
▁motivado 1
▁explícita 1
▁dormitorio 1
▁entusiasmo 1
▁ratifique 1
▁pudiese 1
▁filtra 1
▁variaciones 1
▁parezca 1
Italia 1
China 1
▁tranquilo 1
▁disparo 1
▁vivido 1
sexual 1
▁Subdivisión 1
▁artefactos 1
▁libanés 1
▁Contribuciones 1
▁arriesga 1
▁existiendo 1
▁demostró 1
▁enfermera 1
▁Provincia 1
▁tendiente 1
▁multitud 1
▁trienal 1
▁Debian 1
▁recorte 1
scribió 1
safortunadamente 1
▁Magistrado 1
sproporcionada 1
▁concluya 1
7.000 1
▁pautas 1
Canadá 1
▁Senado 1
métrica 1
▁equipamiento 1
▁ratificó 1
▁abuela 1
▁Ahí 1
▁confiere 1
gregación 1
▁introduce 1
▁marginados 1
▁patrulla 1
▁Apertura 1
▁ocurra 1
México 1
▁Emergencia 1
▁analfabetismo 1
▁italiana 1
confidencialidad 1
▁intercambia 1
▁Adelantados 1
▁asombroso 1
▁multianual 1
▁aceptó 1
▁alinea 1
▁Coalición 1
▁adquiere 1
▁comprenda 1
▁autopista 1
▁contenedor 1
CCPR 1
▁Vivienda 1
▁calificaciones 1
▁creíble 1
▁facilitó 1
▁evacua 1
▁pelea 1
▁Cuarteto 1
▁Tráfico 1
▁excelencia 1
▁ofreció 1
▁fiabilidad 1
▁dispensa 1
▁excusa 1
▁computador 1
▁explosión 1
▁demostración 1
▁exitoso 1
▁sugerir 1
▁percibe 1
▁ESPAÑOL 1
▁arrecife 1
▁fármaco 1
▁redoblar 1
▁asigne 1
▁escritura 1
▁aislada 1
▁rescate 1
demócrata 1
▁desviación 1
▁Annan 1
▁Adicional 1
▁desglosa 1
▁Reconciliación 1
▁demuestre 1
▁exagera 1
▁islámica 1
▁mecánica 1
▁eligió 1
▁reloj 1
▁suicida 1
▁comenzando 1
▁plurianual 1
▁prerrogativa 1
▁muebles 1
▁rechazó 1
▁turística 1
▁Podrá 1
▁cambie 1
▁permitiendo 1
▁diagnostic 1
cogieron 1
в 1
▁Abstenciones 1
▁Marshall 1
▁clásico 1
▁mérito 1
▁acogido 1
▁brote 1
evolucion 1
▁convencional 1
▁INGLÉS 1
▁Solidaridad 1
▁exhortó 1
▁perseguir 1
▁abrió 1
▁inicie 1
▁efectu 1
▁innecesaria 1
▁vectores 1
▁nocivas 1
▁cuenca 1
▁marginal 1
▁elemental 1
▁susceptible 1
▁Seguro 1
▁arroz 1
Alguien 1
▁Recuerdo 1
▁Richard 1
▁Violencia 1
▁piratería 1
▁reproducir 1
▁Michael 1
▁gripe 1
▁veinte 1
▁esboza 1
▁mortal 1
privada 1
▁ecosistema 1
▁desempleados 1
▁endeudados 1
▁monopolio 1
▁niñez 1
▁percibir 1
▁séptima 1
▁alcanzó 1
▁agresiones 1
▁defiende 1
▁inadecuada 1
▁inmueble 1
▁maniobra 1
▁Gambia 1
▁transferido 1
▁Pleno 1
Cuarta 1
▁regir 1
▁suplementaria 1
▁vergüenza 1
▁Piensen 1
▁entendemos 1
▁injusta 1
▁planteó 1
▁abejas 1
▁servido 1
▁certifica 1
▁Schengen 1
▁agotamiento 1
▁comisaría 1
▁signatura 1
prendió 1
▁Adquisiciones 1
▁audiovisual 1
▁Street 1
▁ofrecía 1
▁molesta 1
Podría 1
▁tarda 1
Direct 1
▁núm 1
▁Inmigración 1
▁Nuclear 1
▁héroe 1
▁idónea 1
▁preferible 1
▁intencional 1
▁engaño 1
control 1
▁musulmana 1
▁pidiendo 1
▁curiosidad 1
▁inminente 1
▁AOD 1
▁vegetal 1
▁emitida 1
▁Seguir 1
▁abundante 1
▁contemporáneo 1
▁Women 1
▁indirecto 1
iéndolo 1
▁Association 1
▁Sumario 1
▁inclina 1
▁detrimento 1
▁Debate 1
▁moderado 1
▁Arbitraje 1
▁Desastres 1
▁Ecuatorial 1
▁Gibraltar 1
▁censura 1
▁clínico 1
▁posibilita 1
▁domingo 1
▁repatriados 1
▁Encomia 1
▁angular 1
▁introdujo 1
▁represalia 1
▁climática 1
▁convincente 1
▁pesada 1
▁alimento 1
▁aproveche 1
▁cumplía 1
▁prohibiciones 1
▁riguroso 1
▁vanguardia 1
▁Abdul 1
Corr 1
grupo 1
text 1
▁consume 1
▁Incluye 1
▁desacuerdo 1
▁exacerba 1
▁introductoria 1
▁utilizó 1
▁reasign 1
▁inútil 1
▁resistente 1
▁Vicente 1
▁ballena 1
▁honra 1
▁químico 1
▁Brunei 1
▁discrepancia 1
▁extremismo 1
▁franceses 1
▁dividir 1
▁síntesis 1
▁DVD 1
▁huevo 1
▁empuja 1
▁compatibilidad 1
▁descubrió 1
▁disminuyó 1
▁urbanización 1
▁reunificación 1
▁Charles 1
▁remitido 1
▁confusión 1
▁Parque 1
evaluación 1
▁Fundamentales 1
▁Ministra 1
▁comandante 1
▁comunique 1
▁reunieron 1
▁apelaciones 1
▁Condena 1
▁Organiza 1
resoluciones 1
▁encaminado 1
▁Erradicación 1
▁Excelencia 1
▁PRESIDENTE 1
▁exactitud 1
▁insectos 1
▁matemático 1
▁microcrédito 1
▁predecesor 1
▁dormir 1
▁extinción 1
struyó 1
▁marginación 1
▁presidido 1
▁Viernes 1
▁humilla 1
▁rehenes 1
▁pudimos 1
▁Multi 1
▁1.0 1
▁sucesor 1
▁Jurídico 1
▁Básicamente 1
▁Permítaseme 1
▁Pobreza 1
▁Soviética 1
▁Belgrado 1
▁Enmienda 1
▁supervisor 1
▁Solicita 1
▁Times 1
▁emoción 1
▁turca 1
▁catalizador 1
▁descubrimos 1
▁sospechosas 1
▁subasta 1
▁Steve 1
CERD 1
▁rehabilit 1
▁Profesor 1
▁literatura 1
▁remunerado 1
▁alemanes 1
▁escalera 1
▁rectifica 1
▁probado 1
$ 1
▁Apoyamos 1
▁Ninguna 1
▁pájaro 1
▁University 1
▁propongo 1
▁filtro 1
▁suplente 1
▁quisiéramos 1
▁deteriora 1
▁lentamente 1
▁turistas 1
▁punible 1
▁Claro 1
▁Twitter 1
▁reconocieron 1
▁Jueves 1
▁generosa 1
▁contradicción 1
▁Abeba 1
▁belga 1
▁concesiones 1
▁estabilizar 1
institucionales 1
Alemania 1
́ 1
▁UNAMSIL 1
▁asamblea 1
▁encarecidamente 1
▁progresivo 1
▁refrigera 1
р 1
▁afgana 1
Federación 1
▁atrocidades 1
▁placa 1
▁accesibilidad 1
▁apátrida 1
▁multisectorial 1
▁quinquenal 1
▁reflejo 1
▁descarta 1
http 1
europe 1
atlántica 1
▁Cercano 1
▁Gabinete 1
▁interactuar 1
▁llegué 1
▁prototipo 1
▁referendo 1
▁Situado 1
▁espejo 1
▁insumos 1
▁Prensa 1
▁imprevistos 1
▁tóxicos 1
▁comenzamos 1
▁recesión 1
▁construida 1
▁Espera 1
▁Detallada 1
▁aborígenes 1
▁excombatientes 1
▁inmunización 1
▁arrastra 1
▁Edición 1
▁tecla 1
▁Obviamente 1
▁Service 1
▁progresar 1
▁prudente 1
▁tormenta 1
▁Tokio 1
▁descuento 1
▁invertido 1
▁Court 1
tuvimos 1
torgamiento 1
▁Darussalam 1
▁introduzca 1
▁suplementario 1
▁Minorías 1
▁escoger 1
▁hereda 1
▁mixta 1
▁HUMANOS 1
▁Salomón 1
▁abstenerse 1
▁atraviesa 1
▁soberana 1
▁sábado 1
▁colonos 1
▁tentativa 1
▁Funciona 1
▁vestido 1
comunicación 1
▁Harvard 1
▁Tuvalu 1
▁biotecnología 1
▁inglesa 1
▁restauración 1
▁subterránea 1
▁encomendado 1
▁exigía 1
▁corona 1
▁conozco 1
▁embajador 1
▁táctica 1
▁convicciones 1
▁Amazon 1
▁barata 1
▁emerge 1
ò 1
▁relevancia 1
▁Rumanía 1
▁tardía 1
▁asentamiento 1
▁indiscriminado 1
▁metilbromuro 1
▁vecindad 1
▁persigue 1
▁Continua 1
¿ 1
Francia 1
▁adulto 1
▁sostuvo 1
▁imperante 1
▁giro 1
▁salvaguardia 1
▁hormiga 1
▁perdieron 1
▁restaurar 1
▁CFC 1
▁muerta 1
‘ 1
▁Agrícola 1
▁apariencia 1
▁escuchó 1
▁Barroso 1
▁adulta 1
▁culto 1
▁grita 1
▁emociona 1
▁Instrumento 1
▁Palestino 1
{ 1
▁promovido 1
▁esclavos 1
▁impedido 1
▁vidrio 1
▁prospera 1
▁medicamento 1
oficina 1
▁Preparatoria 1
▁Xenofobia 1
▁autobuses 1
▁fortaleza 1
▁hostigamiento 1
▁innecesario 1
▁insostenible 1
▁necesito 1
▁tranquilidad 1
▁subvención 1
▁jugando 1
▁octava 1
▁Juegos 1
▁ligero 1
▁esclarec 1
▁plaga 1
▁Deporte 1
▁inmobiliario 1
▁sufriendo 1
▁truco 1
▁recibo 1
▁Center 1
parlamentaria 1
Relator 1
} 1
± 1
ê 1
č 1
š 1
у 1
л 1
Ñ 1
к 1
м 1
ø 1
â 1
п 1
д 1
· 1
ï 1
ì 1
î 1
å 1
ë 1
Р 1
ل 1
я 1
ы 1
б 1
َ 1
― 1
з 1
ي 1
` 1
є 1
г 1
„ 1
∗ 1
й 1
ь 1
В 1
ß 1
ž 1
μ 1
Ѓ 1
§ 1
ù 1
‰ 1
< 1
ş 1
« 1
ł 1
\ 1
õ 1
ð 1
ا 1
Ö 1
Č 1
х 1
û 1
Ο 1
ć 1
£ 1
ă 1
æ 1
α 1
ю 1
‹ 1
ā 1
‚ 1
ė 1
ã 1
ę 1
Û 1
Ü 1
ı 1
~ 1
ш 1
Å 1
ر 1
Â 1
• 1
Ç 1
ŷ 1
ι 1
Ž 1
œ 1
─ 1
ý 1
Ä 1
ו 1
Ⴗ 1
ت 1
ф 1
σ 1
ن 1
→ 1
ą 1
− 1
‡ 1
ο 1
τ 1
щ 1
э 1
ε 1
ب 1
^ 1
ğ 1
ś 1
ż 1
م 1
ה 1
ň 1
È 1
ъ 1
¦ 1
Ş 1
Т 1
ő 1
● 1
ѓ 1
κ 1
د 1
ة 1
ÿ 1
і 1
Џ 1
ν 1
К 1
ש 1
▪ 1
À 1
و 1
ī 1
ĝ 1
ō 1
ْ 1
ū 1
† 1
υ 1
О 1
λ 1
И 1
ό 1
י 1
ל 1
π 1
η 1
Н 1
İ 1
І 1
س 1
خ 1
ع 1
מ 1
ك 1
β 1
ח 1
语 1
Ì 1
ί 1
П 1
ા 1
ר 1
А 1
ב 1
נ 1
ρ 1
ά 1
М 1
ŝ 1
ŭ 1
Ò 1
× 1
ת 1
■ 1
Ê 1
ź 1
ٌ 1
¥ 1
̊ 1
ї 1
Е 1
δ 1
ĉ 1
ע 1
þ 1
Ł 1
Ε 1
ّ 1
ન 1
χ 1
Đ 1
ه 1
 1
ς 1
Х 1
פ 1
، 1
ح 1
ढ 1
ी 1
ो 1
′ 1
¢ 1
Ι 1
ف 1
У 1
θ 1
γ 1
¬ 1
א 1
ط 1
ો 1
÷ 1
Κ 1
З 1
ى 1
ی 1
ा 1
ર 1
อ 1
ķ 1
¤ 1
ય 1
ق 1
ȣ 1
Ф 1
ק 1
ص 1
े 1
‐ 1
≈ 1
○ 1
★ 1
北 1
Ï 1
ή 1
ד 1
ش 1
म 1
ી 1
غ 1
我 1
个 1
你 1
Ч 1
Ш 1
Ë 1
Α 1
Б 1
જ 1
¶ 1
Ô 1
ų 1
ё 1
ם 1
ث 1
ं 1
ई 1
ड 1
त 1
य 1
र 1
ि 1
ં 1
ે 1
્ 1
ဪ 1
◆ 1
♲ 1
ē 1
आ 1
ક 1
ુ 1
神 1
ز 1
่ 1
牙 1
以 1
的 1
妈 1
在 1
Л 1
一 1
ύ 1
中 1
भ 1
海 1
ṛ 1
Ý 1
ģ 1
Ń 1
ť 1
ů 1
ǎ 1
ǵ 1
Ν 1
Ρ 1
έ 1
ξ 1
ω 1
ћ 1
ג 1
ך 1
ן 1
ض 1
ڤ 1
ग 1
ज 1
थ 1
न 1
ગ 1
ચ 1
દ 1
ย 1
ร 1
ၝ 1
√ 1
≤ 1
♦ 1
❑ 1
。 1
』 1
不 1
与 1
出 1
台 1
啊 1
正 1
洋 1
ј 1
ु 1
સ 1
ṣ 1
大 1
法 1
西 1
香 1
面 1
行 1
游 1
港 1
来 1
执 1
地 1
历 1
决 1
内 1
仲 1
了 1
► 1
∑ 1
ၛ 1
ષ 1
વ 1
લ 1
પ 1
ધ 1
ડ 1
। 1
् 1
ह 1
צ 1
כ 1
Ц 1
Ř 1
Œ 1
ĵ 1
Ĉ 1
有 1
‛ 1
क 1
ז 1
Є 1
Μ 1
ʾ 1
ľ 1
裁 1
ج 1
إ 1
Э 1
Д 1
Σ 1
़ 1
ќ 1
Î 1
أ 1
њ 1
※ 1
љ 1
Ő 1
 1
Ţ 1
Ј 1
̧ 1
Ś 1
♫ 1
ţ 1
Ć 1
प 1
 1
đ 1
› 1
Ŷ 1
Ø 1
ě 1
؟ 1
ř 1
Љ 1
Њ 1
⁄ 1
ц 1
ж 1
Ќ 1
̈ 1
Ћ 1
之 1
制 1
发 1
展 1
度 1
ч 1
Ђ 1
ń 1
互 1
相 1
下 1
可 1
唱 1
教 1
曲 1
歌 1
给 1
φ 1
Й 1
京 1
公 1
名 1
声 1
多 1
居 1
工 1
很 1
心 1
方 1
晟 1
結 1
网 1
苑 1
બ 1
ṭ 1
山 1
政 1
果 1
白 1
社 1
铭 1
ű 1
Ÿ 1
ǻ 1
₤ 1
持 1
­ 1
Æ 1
Ā 1
Ă 1
ċ 1
ď 1
į 1
Ľ 1
ņ 1
ŕ 1
Ū 1
ƒ 1
ǒ 1
Β 1
Υ 1
Φ 1
Ω 1
ζ 1
Ѕ 1
Ж 1
Ы 1
Я 1
ט 1
ף 1
ؤ 1
ً 1
ख 1
स 1
એ 1
ખ 1
ણ 1
થ 1
મ 1
શ 1
િ 1
ธ 1
ศ 1
ะ 1
ใ 1
ၡ 1
ၢ 1
ṇ 1
ẹ 1
ọ 1
ờ 1
‒ 1
⇒ 1
⇢ 1
∙ 1
≥ 1
□ 1
◙ 1
◦ 1
◯ 1
♣ 1
『 1
い 1
お 1
し 1
も 1
ろ 1
世 1
並 1
为 1
伯 1
作 1
修 1
做 1
农 1
几 1
分 1
剥 1
参 1
合 1
和 1
咬 1
喜 1
嘛 1
外 1
太 1
妨 1
姐 1
完 1
寓 1
局 1
帝 1
年 1
建 1
後 1
徳 1
情 1
慧 1
成 1
所 1
拉 1
探 1
星 1
木 1
松 1
比 1
燰 1
特 1
王 1
甜 1
生 1
界 1
眼 1
租 1
等 1
紧 1
美 1
翻 1
臺 1
色 1
茶 1
葱 1
藤 1
要 1
见 1
视 1
角 1
言 1
請 1
设 1
译 1
课 1
赠 1
路 1
载 1
農 1
连 1
送 1
這 1
鏮 1
鑚 1
镜 1
问 1
阳 1
陈 1
院 1
Š 1
Ė 1
Ķ 1
ț 1
ذ 1
આ 1
พ 1
↕ 1
⇕ 1
炎 1
Ę 1
ļ 1
હ 1
三 1
取 1
寄 1
甸 1
返 1
イ 1
オ 1
セ 1
ッ 1
デ 1
Ў 1
俄 1
利 1
德 1
意 1
日 1
汉 1
班 1
英 1
萄 1
葡 1
阿 1
<mask> 1
